{
  "version": "1.0",
  "truncation": null,
  "padding": null,
  "added_tokens": [
    {
      "id": 0,
      "content": "<|eos|>",
      "single_word": false,
      "lstrip": false,
      "rstrip": false,
      "normalized": false,
      "special": true
    }
  ],
  "normalizer": null,
  "pre_tokenizer": {
    "type": "ByteLevel",
    "add_prefix_space": false,
    "trim_offsets": true,
    "use_regex": true
  },
  "post_processor": null,
  "decoder": {
    "type": "ByteLevel",
    "add_prefix_space": true,
    "trim_offsets": true,
    "use_regex": true
  },
  "model": {
    "type": "BPE",
    "dropout": null,
    "unk_token": null,
    "continuing_subword_prefix": null,
    "end_of_word_suffix": null,
    "fuse_unk": false,
    "byte_fallback": false,
    "ignore_merges": false,
    "vocab": {
      "<|eos|>": 0,
      "!": 1,
      "\"": 2,
      "#": 3,
      "$": 4,
      "%": 5,
      "&": 6,
      "'": 7,
      "(": 8,
      ")": 9,
      "*": 10,
      "+": 11,
      ",": 12,
      "-": 13,
      ".": 14,
      "/": 15,
      "0": 16,
      "1": 17,
      "2": 18,
      "3": 19,
      "4": 20,
      "5": 21,
      "6": 22,
      "7": 23,
      "8": 24,
      "9": 25,
      ":": 26,
      ";": 27,
      "<": 28,
      "=": 29,
      ">": 30,
      "?": 31,
      "@": 32,
      "A": 33,
      "B": 34,
      "C": 35,
      "D": 36,
      "E": 37,
      "F": 38,
      "G": 39,
      "H": 40,
      "I": 41,
      "J": 42,
      "K": 43,
      "L": 44,
      "M": 45,
      "N": 46,
      "O": 47,
      "P": 48,
      "Q": 49,
      "R": 50,
      "S": 51,
      "T": 52,
      "U": 53,
      "V": 54,
      "W": 55,
      "X": 56,
      "Y": 57,
      "Z": 58,
      "[": 59,
      "\\": 60,
      "]": 61,
      "^": 62,
      "_": 63,
      "`": 64,
      "a": 65,
      "b": 66,
      "c": 67,
      "d": 68,
      "e": 69,
      "f": 70,
      "g": 71,
      "h": 72,
      "i": 73,
      "j": 74,
      "k": 75,
      "l": 76,
      "m": 77,
      "n": 78,
      "o": 79,
      "p": 80,
      "q": 81,
      "r": 82,
      "s": 83,
      "t": 84,
      "u": 85,
      "v": 86,
      "w": 87,
      "x": 88,
      "y": 89,
      "z": 90,
      "{": 91,
      "|": 92,
      "}": 93,
      "~": 94,
      "¡": 95,
      "¢": 96,
      "£": 97,
      "¤": 98,
      "¥": 99,
      "¦": 100,
      "§": 101,
      "¨": 102,
      "©": 103,
      "ª": 104,
      "«": 105,
      "¬": 106,
      "®": 107,
      "¯": 108,
      "°": 109,
      "±": 110,
      "²": 111,
      "³": 112,
      "´": 113,
      "µ": 114,
      "¶": 115,
      "·": 116,
      "¸": 117,
      "¹": 118,
      "º": 119,
      "»": 120,
      "¼": 121,
      "½": 122,
      "¾": 123,
      "¿": 124,
      "À": 125,
      "Á": 126,
      "Â": 127,
      "Ã": 128,
      "Ä": 129,
      "Å": 130,
      "Æ": 131,
      "Ç": 132,
      "È": 133,
      "É": 134,
      "Ê": 135,
      "Ë": 136,
      "Ì": 137,
      "Í": 138,
      "Î": 139,
      "Ï": 140,
      "Ð": 141,
      "Ñ": 142,
      "Ò": 143,
      "Ó": 144,
      "Ô": 145,
      "Õ": 146,
      "Ö": 147,
      "×": 148,
      "Ø": 149,
      "Ù": 150,
      "Ú": 151,
      "Û": 152,
      "Ü": 153,
      "Ý": 154,
      "Þ": 155,
      "ß": 156,
      "à": 157,
      "á": 158,
      "â": 159,
      "ã": 160,
      "ä": 161,
      "å": 162,
      "æ": 163,
      "ç": 164,
      "è": 165,
      "é": 166,
      "ê": 167,
      "ë": 168,
      "ì": 169,
      "í": 170,
      "î": 171,
      "ï": 172,
      "ð": 173,
      "ñ": 174,
      "ò": 175,
      "ó": 176,
      "ô": 177,
      "õ": 178,
      "ö": 179,
      "÷": 180,
      "ø": 181,
      "ù": 182,
      "ú": 183,
      "û": 184,
      "ü": 185,
      "ý": 186,
      "þ": 187,
      "ÿ": 188,
      "Ā": 189,
      "ā": 190,
      "Ă": 191,
      "ă": 192,
      "Ą": 193,
      "ą": 194,
      "Ć": 195,
      "ć": 196,
      "Ĉ": 197,
      "ĉ": 198,
      "Ċ": 199,
      "ċ": 200,
      "Č": 201,
      "č": 202,
      "Ď": 203,
      "ď": 204,
      "Đ": 205,
      "đ": 206,
      "Ē": 207,
      "ē": 208,
      "Ĕ": 209,
      "ĕ": 210,
      "Ė": 211,
      "ė": 212,
      "Ę": 213,
      "ę": 214,
      "Ě": 215,
      "ě": 216,
      "Ĝ": 217,
      "ĝ": 218,
      "Ğ": 219,
      "ğ": 220,
      "Ġ": 221,
      "ġ": 222,
      "Ģ": 223,
      "ģ": 224,
      "Ĥ": 225,
      "ĥ": 226,
      "Ħ": 227,
      "ħ": 228,
      "Ĩ": 229,
      "ĩ": 230,
      "Ī": 231,
      "ī": 232,
      "Ĭ": 233,
      "ĭ": 234,
      "Į": 235,
      "į": 236,
      "İ": 237,
      "ı": 238,
      "Ĳ": 239,
      "ĳ": 240,
      "Ĵ": 241,
      "ĵ": 242,
      "Ķ": 243,
      "ķ": 244,
      "ĸ": 245,
      "Ĺ": 246,
      "ĺ": 247,
      "Ļ": 248,
      "ļ": 249,
      "Ľ": 250,
      "ľ": 251,
      "Ŀ": 252,
      "ŀ": 253,
      "Ł": 254,
      "ł": 255,
      "Ń": 256,
      "Ġt": 257,
      "Ġa": 258,
      "in": 259,
      "he": 260,
      "re": 261,
      "on": 262,
      "Ġthe": 263,
      "er": 264,
      "Ġs": 265,
      "at": 266,
      "Ġo": 267,
      "en": 268,
      "Ġc": 269,
      "Ġw": 270,
      "es": 271,
      "is": 272,
      "it": 273,
      "nd": 274,
      "or": 275,
      "al": 276,
      "ing": 277,
      "Ġp": 278,
      "Ġf": 279,
      "Ġb": 280,
      "ou": 281,
      "an": 282,
      "ed": 283,
      "Ġof": 284,
      "Ġm": 285,
      "ar": 286,
      "Ġin": 287,
      "Ġd": 288,
      "Ġto": 289,
      "ion": 290,
      "ic": 291,
      "Ġand": 292,
      "le": 293,
      "ĠĠ": 294,
      "om": 295,
      "Ġth": 296,
      "as": 297,
      "Ġh": 298,
      "ent": 299,
      "Ġe": 300,
      "ct": 301,
      "Ġn": 302,
      "ro": 303,
      "Ġl": 304,
      "ve": 305,
      "Ġre": 306,
      "st": 307,
      "il": 308,
      "et": 309,
      "ly": 310,
      "Ġis": 311,
      "Ġg": 312,
      "im": 313,
      "ut": 314,
      "se": 315,
      "ot": 316,
      "ĠT": 317,
      "Ġbe": 318,
      "ra": 319,
      "id": 320,
      "ol": 321,
      "ow": 322,
      "ation": 323,
      "ce": 324,
      "ig": 325,
      "ĠI": 326,
      "Ġu": 327,
      "Ġy": 328,
      "ĠA": 329,
      "Ġfor": 330,
      "Ġst": 331,
      "Ġthat": 332,
      "ur": 333,
      "ĠS": 334,
      "Ġon": 335,
      "ch": 336,
      "ver": 337,
      "ĠĠĠĠ": 338,
      "ay": 339,
      "am": 340,
      "âĢ": 341,
      "ul": 342,
      "ĠC": 343,
      "Ġ1": 344,
      "ir": 345,
      "Ġyou": 346,
      "el": 347,
      "ith": 348,
      "Ġit": 349,
      "ad": 350,
      "if": 351,
      "her": 352,
      "Ġan": 353,
      "Ġas": 354,
      "Ġcon": 355,
      "Ġ(": 356,
      "Ġwh": 357,
      "Ġwith": 358,
      "ter": 359,
      "--": 360,
      "um": 361,
      "Ġpro": 362,
      "Ġal": 363,
      "Ġare": 364,
      "ĠM": 365,
      "Ġor": 366,
      "ge": 367,
      "od": 368,
      "qu": 369,
      "ate": 370,
      "ers": 371,
      "ĠP": 372,
      "ist": 373,
      "Ġex": 374,
      "Ġ2": 375,
      "Ġhe": 376,
      "ment": 377,
      "Ġwe": 378,
      "ĠThe": 379,
      "ab": 380,
      "th": 381,
      "ri": 382,
      "Ġv": 383,
      "ke": 384,
      "ĠB": 385,
      "Ġcom": 386,
      "ill": 387,
      "Âł": 388,
      "Ġde": 389,
      "ore": 390,
      "op": 391,
      "ld": 392,
      "ess": 393,
      "est": 394,
      "Ġha": 395,
      "Ġat": 396,
      "us": 397,
      "res": 398,
      "ect": 399,
      "un": 400,
      "igh": 401,
      "ĠW": 402,
      "os": 403,
      "ity": 404,
      "pp": 405,
      "rom": 406,
      "ĠH": 407,
      "ac": 408,
      "ive": 409,
      "ies": 410,
      "em": 411,
      "iv": 412,
      "Ġsu": 413,
      "Ġby": 414,
      "ĠD": 415,
      "Ġr": 416,
      "nt": 417,
      "ain": 418,
      "ant": 419,
      "ĠF": 420,
      "ĠE": 421,
      "Ġne": 422,
      "'s": 423,
      "ĠR": 424,
      "Ġse": 425,
      "Ġcan": 426,
      "end": 427,
      "and": 428,
      "all": 429,
      "Ġch": 430,
      "00": 431,
      "Ġthis": 432,
      "Ġwas": 433,
      "Ġnot": 434,
      "oc": 435,
      "ight": 436,
      "Ġ=": 437,
      "Ġfrom": 438,
      "ort": 439,
      "art": 440,
      "Ġle": 441,
      "Ġhave": 442,
      "ure": 443,
      "ud": 444,
      "ĠN": 445,
      "pl": 446,
      "Ġsh": 447,
      "ial": 448,
      "ĠL": 449,
      "ould": 450,
      "ction": 451,
      "ical": 452,
      "Ġab": 453,
      "ĠG": 454,
      "ĠĠĠĠĠĠĠĠ": 455,
      "..": 456,
      "out": 457,
      "ine": 458,
      "og": 459,
      "ere": 460,
      "ust": 461,
      "pt": 462,
      "ome": 463,
      "gh": 464,
      "rou": 465,
      "pe": 466,
      "ag": 467,
      "Ġint": 468,
      "Ġwor": 469,
      "Ġk": 470,
      "ard": 471,
      "Ġus": 472,
      "our": 473,
      "ost": 474,
      "ther": 475,
      "ĠO": 476,
      "per": 477,
      "are": 478,
      "Ġwhe": 479,
      "ich": 480,
      "Ġpl": 481,
      "----": 482,
      "Ġen": 483,
      "Ġdo": 484,
      "ĠâĢ": 485,
      "ple": 486,
      "ions": 487,
      "Ġim": 488,
      "âĢĻ": 489,
      "The": 490,
      "iz": 491,
      "age": 492,
      "Ġthey": 493,
      "ell": 494,
      "Ġ\"": 495,
      "ide": 496,
      "ak": 497,
      "Ġall": 498,
      "ff": 499,
      "Ġyour": 500,
      "ous": 501,
      "ult": 502,
      "ast": 503,
      "act": 504,
      "ĠJ": 505,
      "ind": 506,
      "Ġtheir": 507,
      "ated": 508,
      "ations": 509,
      "ans": 510,
      "Ġme": 511,
      "Ġad": 512,
      "Ġwill": 513,
      "ie": 514,
      "Ġj": 515,
      "ong": 516,
      "ear": 517,
      "Ġbut": 518,
      "Ġ3": 519,
      "ib": 520,
      "##": 521,
      "Ġcont": 522,
      "ĠU": 523,
      "Ġres": 524,
      "Ġwhich": 525,
      "ue": 526,
      "ally": 527,
      "ĠTh": 528,
      "ame": 529,
      "du": 530,
      "ks": 531,
      "orm": 532,
      "Ġgo": 533,
      "Ġ-": 534,
      "able": 535,
      "ap": 536,
      "ĠIn": 537,
      "Ġone": 538,
      "Ġmore": 539,
      "ber": 540,
      "Ġdis": 541,
      "Ġhas": 542,
      "ep": 543,
      "ime": 544,
      "ary": 545,
      "vel": 546,
      "one": 547,
      "ry": 548,
      "ance": 549,
      "cc": 550,
      "Ġcl": 551,
      "cl": 552,
      "ice": 553,
      "ip": 554,
      "ike": 555,
      "Ġother": 556,
      "Ġstr": 557,
      "oo": 558,
      "Ġout": 559,
      "ÂłÂł": 560,
      "ire": 561,
      "Ġun": 562,
      "Ġso": 563,
      "ents": 564,
      "Ġabout": 565,
      "ach": 566,
      "int": 567,
      "ass": 568,
      "ake": 569,
      "ign": 570,
      "Ġqu": 571,
      "Ġman": 572,
      "Ġper": 573,
      "ence": 574,
      "very": 575,
      "ress": 576,
      "Ġ\\": 577,
      "so": 578,
      "Ġapp": 579,
      "Ġcomp": 580,
      "au": 581,
      "Ġ$": 582,
      "Ġar": 583,
      "Ġev": 584,
      "Ġup": 585,
      "ase": 586,
      "ace": 587,
      "eg": 588,
      "ang": 589,
      "ack": 590,
      "Ġwho": 591,
      "ile": 592,
      "reat": 593,
      "ite": 594,
      "Ġte": 595,
      "ia": 596,
      "Ġsp": 597,
      "now": 598,
      "Ġif": 599,
      "av": 600,
      "Ġhis": 601,
      "ĠSt": 602,
      "Ġlike": 603,
      "Ġpre": 604,
      "ors": 605,
      "Ġsome": 606,
      "Ġthere": 607,
      "ces": 608,
      "'t": 609,
      "Ġthem": 610,
      "ition": 611,
      "ens": 612,
      "Ġwere": 613,
      "Ġpart": 614,
      "ub": 615,
      "Ġ0": 616,
      "Ġ4": 617,
      "ays": 618,
      "ount": 619,
      "ord": 620,
      "ree": 621,
      "ose": 622,
      "com": 623,
      "iff": 624,
      "ound": 625,
      "ild": 626,
      "low": 627,
      "ater": 628,
      "Ġsc": 629,
      "Ġwhen": 630,
      "Ġhow": 631,
      "Ġinto": 632,
      "Ġ19": 633,
      "Ġ|": 634,
      "``": 635,
      "Ġwould": 636,
      ").": 637,
      "Ġthan": 638,
      "Ġalso": 639,
      "Ġtr": 640,
      "Ġtime": 641,
      "Ġnum": 642,
      "ory": 643,
      "port": 644,
      "nder": 645,
      "Ġpe": 646,
      "ew": 647,
      "king": 648,
      "ĊĊ": 649,
      "ll": 650,
      "ough": 651,
      "form": 652,
      "ĠK": 653,
      "ood": 654,
      "ph": 655,
      "ĠIt": 656,
      "Ġwhat": 657,
      "Ġro": 658,
      "Ġtw": 659,
      "te": 660,
      "Ġany": 661,
      "ond": 662,
      "ings": 663,
      "ru": 664,
      "ĠY": 665,
      "Ġknow": 666,
      "Ġcomm": 667,
      "Ġsy": 668,
      "Ġ5": 669,
      "ĠCh": 670,
      "Ġag": 671,
      "ail": 672,
      "Ġdiff": 673,
      "Ġbet": 674,
      "ath": 675,
      "Ġ+": 676,
      "Ġthese": 677,
      "Ġspe": 678,
      "Ġbec": 679,
      "Ġmay": 680,
      "Ġits": 681,
      "Ġhad": 682,
      "ish": 683,
      "ms": 684,
      "ople": 685,
      "ual": 686,
      "Ġstud": 687,
      "rough": 688,
      "ict": 689,
      "Ġover": 690,
      "Ġget": 691,
      "Ġ20": 692,
      "xt": 693,
      "ates": 694,
      "Ġpo": 695,
      "ĠV": 696,
      "unction": 697,
      "ove": 698,
      "we": 699,
      "vers": 700,
      "ause": 701,
      "ons": 702,
      "Ġind": 703,
      "ious": 704,
      "Ġyear": 705,
      "Ġra": 706,
      "irst": 707,
      "Ġtra": 708,
      "Ġsa": 709,
      "Ġour": 710,
      "Ġunder": 711,
      "les": 712,
      "ject": 713,
      "Ġuse": 714,
      "ating": 715,
      "ft": 716,
      "Ġtwo": 717,
      "set": 718,
      "ĠThis": 719,
      "olog": 720,
      "Ġpeople": 721,
      "âĢĿ": 722,
      "Ġno": 723,
      "Ġbeen": 724,
      "mer": 725,
      "__": 726,
      "urn": 727,
      "erv": 728,
      "Ġcol": 729,
      "ics": 730,
      "Ġneed": 731,
      "ble": 732,
      "ities": 733,
      "ov": 734,
      "Ġcall": 735,
      "Ġx": 736,
      "cre": 737,
      "Ġnew": 738,
      "ific": 739,
      "Ġam": 740,
      "--------": 741,
      "Ġcons": 742,
      "Ġrel": 743,
      "rit": 744,
      "ian": 745,
      "Ġoff": 746,
      "tern": 747,
      "),": 748,
      "ys": 749,
      "Ġdes": 750,
      "eth": 751,
      "Ġonly": 752,
      "row": 753,
      "Ġmy": 754,
      "Ġher": 755,
      "Ġsuch": 756,
      "Ġpr": 757,
      "Ġjust": 758,
      "ĠĠĠ": 759,
      "ook": 760,
      "ative": 761,
      "Ġrec": 762,
      "ments": 763,
      "lect": 764,
      "Ġdiffere": 765,
      "Ġexp": 766,
      "ob": 767,
      "red": 768,
      "Ġbl": 769,
      "Ġwork": 770,
      "Ġfe": 771,
      "rib": 772,
      "Ġact": 773,
      "Ġacc": 774,
      "Ġgen": 775,
      "Ġpos": 776,
      "ck": 777,
      "Ġhel": 778,
      "Ġthen": 779,
      "Ġfirst": 780,
      "round": 781,
      "ning": 782,
      "ink": 783,
      "ne": 784,
      "ful": 785,
      "Ġthrough": 786,
      "ick": 787,
      "Ġob": 788,
      "ange": 789,
      "ular": 790,
      "Ġ6": 791,
      "cess": 792,
      "Ġem": 793,
      "ient": 794,
      "clud": 795,
      "Ġval": 796,
      "oth": 797,
      "stem": 798,
      "Ġco": 799,
      "Ġequ": 800,
      "Ġstring": 801,
      "hed": 802,
      "Ġcould": 803,
      "ĠâĢľ": 804,
      "hat": 805,
      "Ġhelp": 806,
      "own": 807,
      "ility": 808,
      "ution": 809,
      "ĠĠĠĠĠĠĠĠĠĠĠĠĠĠĠĠ": 810,
      "als": 811,
      "Ġmany": 812,
      "ren": 813,
      "fter": 814,
      "Ġadd": 815,
      "fore": 816,
      "ert": 817,
      "ise": 818,
      "Ġwhere": 819,
      "ark": 820,
      "Ġmost": 821,
      "ced": 822,
      "sel": 823,
      "hen": 824,
      "Ġ200": 825,
      "Ġph": 826,
      "Ġspec": 827,
      "ible": 828,
      "Ġeff": 829,
      "uring": 830,
      "old": 831,
      "ween": 832,
      "Ġfunction": 833,
      "Ġform": 834,
      "Ġrem": 835,
      "ures": 836,
      "Ġexam": 837,
      "ric": 838,
      "erm": 839,
      "ational": 840,
      "Ġsub": 841,
      "Ġass": 842,
      "ract": 843,
      "Ġnumber": 844,
      "Ġused": 845,
      "Ġsim": 846,
      "its": 847,
      "ĠâĢĵ": 848,
      "uch": 849,
      "Ġbetween": 850,
      "Ġinter": 851,
      "Ġsm": 852,
      "Ġinv": 853,
      "Ġac": 854,
      "Ġreg": 855,
      "In": 856,
      "lic": 857,
      "10": 858,
      "velop": 859,
      "Ġprov": 860,
      "ting": 861,
      "Ġshe": 862,
      "Ġshould": 863,
      "Ġinclud": 864,
      "ata": 865,
      "Ġvar": 866,
      "Ġprodu": 867,
      "Ġevery": 868,
      "ased": 869,
      "ied": 870,
      "Ġeach": 871,
      "ĠHe": 872,
      "ĠUn": 873,
      "Ġfl": 874,
      "cept": 875,
      "hes": 876,
      "ram": 877,
      "wn": 878,
      "Ġmake": 879,
      "Ġbecause": 880,
      "Ġinst": 881,
      "Ġeven": 882,
      "egin": 883,
      "Ġset": 884,
      "Ġsee": 885,
      "ec": 886,
      "ower": 887,
      "Ġatt": 888,
      "Ġ10": 889,
      "rac": 890,
      "alth": 891,
      "Ġ7": 892,
      "Ġimp": 893,
      "Ġsystem": 894,
      "ont": 895,
      "Ġmod": 896,
      "Ġ'": 897,
      "iss": 898,
      "begin": 899,
      "Ġfind": 900,
      "Ġdifferent": 901,
      "Ġbu": 902,
      "Ġway": 903,
      "ues": 904,
      "....": 905,
      "Ġpers": 906,
      "Ġsur": 907,
      "other": 908,
      "Ġdist": 909,
      "ollow": 910,
      "ss": 911,
      "Ġdoes": 912,
      "imes": 913,
      "iew": 914,
      "Ġgra": 915,
      "get": 916,
      "ten": 917,
      "aw": 918,
      "Ġsame": 919,
      "Ġpoint": 920,
      "Ġ8": 921,
      "ually": 922,
      "}{": 923,
      "ng": 924,
      "ines": 925,
      "ident": 926,
      "Ġ.": 927,
      "ĠIf": 928,
      "ife": 929,
      "Ġsupp": 930,
      "aking": 931,
      "12": 932,
      "ily": 933,
      ".\"": 934,
      "ered": 935,
      "oy": 936,
      "Ġdef": 937,
      "Ġyears": 938,
      "ize": 939,
      "Ġdevelop": 940,
      "Ġright": 941,
      "Ġsol": 942,
      "ool": 943,
      "Ġke": 944,
      "ever": 945,
      "Ġchild": 946,
      "ade": 947,
      "Ġdi": 948,
      "Ġtrans": 949,
      "ax": 950,
      "Ġinf": 951,
      "Ġdisc": 952,
      "Ġsaid": 953,
      "Ġwell": 954,
      "$$": 955,
      "Ġexpl": 956,
      "Ġfact": 957,
      "ives": 958,
      "ĠWe": 959,
      "Th": 960,
      "ÂłÂłÂłÂł": 961,
      "arch": 962,
      "Ġmuch": 963,
      "ps": 964,
      "ef": 965,
      "stand": 966,
      "Ġusing": 967,
      "the": 968,
      "Ġquest": 969,
      "Ġpol": 970,
      "Ġty": 971,
      "Ġmat": 972,
      "Ġ9": 973,
      "Ġvery": 974,
      "Ġlong": 975,
      "Ġback": 976,
      "Ġdet": 977,
      "Ġsign": 978,
      "resent": 979,
      "cy": 980,
      "ically": 981,
      "Ġlear": 982,
      "âĢ¢": 983,
      "Ġafter": 984,
      "Ġdec": 985,
      "Ġ/": 986,
      "sw": 987,
      "Ġ[": 988,
      "...": 989,
      "pr": 990,
      "Ġfollow": 991,
      "chn": 992,
      "Ġproble": 993,
      "Ġresp": 994,
      "Ġexper": 995,
      "ists": 996,
      "Ġthose": 997,
      "ĠAl": 998,
      "Ġhim": 999,
      "ex": 1000,
      "Ġsom": 1001,
      "Ġgener": 1002,
      "ving": 1003,
      "ward": 1004,
      "ĠFor": 1005,
      "Ġwant": 1006,
      "Ġresult": 1007,
      "ural": 1008,
      "Ġcur": 1009,
      "ty": 1010,
      "eng": 1011,
      "Ġdid": 1012,
      "ĠHow": 1013,
      "Ġbeing": 1014,
      "Ġhigh": 1015,
      "Ġimport": 1016,
      "20": 1017,
      "Ġear": 1018,
      "ience": 1019,
      "ices": 1020,
      "ĠPro": 1021,
      "ited": 1022,
      "ĠAn": 1023,
      "gan": 1024,
      "Ġrep": 1025,
      "oci": 1026,
      "Ġcount": 1027,
      "Ġworld": 1028,
      "ness": 1029,
      "Ġref": 1030,
      "ins": 1031,
      "Ġent": 1032,
      "Ġboth": 1033,
      "ature": 1034,
      "ute": 1035,
      "Ġdata": 1036,
      "Ġnow": 1037,
      "**": 1038,
      "bers": 1039,
      "Ġcomple": 1040,
      "ts": 1041,
      "Ġins": 1042,
      "meric": 1043,
      "000": 1044,
      "ism": 1045,
      "ages": 1046,
      "Ġmin": 1047,
      "formation": 1048,
      "Ġwhile": 1049,
      "Ġdown": 1050,
      "Ġincre": 1051,
      "led": 1052,
      "11": 1053,
      "Ġdon": 1054,
      "Ġplay": 1055,
      "tle": 1056,
      "Ġcar": 1057,
      "Ġi": 1058,
      "Ġend": 1059,
      "nce": 1060,
      "cul": 1061,
      "Ġsec": 1062,
      "Ġwater": 1063,
      "Ġtoo": 1064,
      "gy": 1065,
      "ix": 1066,
      "###": 1067,
      "chool": 1068,
      "Ġed": 1069,
      "vent": 1070,
      "Ġcent": 1071,
      "Ġgood": 1072,
      "io": 1073,
      "Ġbefore": 1074,
      "Ġcre": 1075,
      "Ġext": 1076,
      "Ġloc": 1077,
      "Ġread": 1078,
      "ince": 1079,
      "ology": 1080,
      "Ġfound": 1081,
      "ved": 1082,
      "Ġpartic": 1083,
      "iven": 1084,
      "ivid": 1085,
      "ential": 1086,
      "Ġshow": 1087,
      "Ġrequ": 1088,
      "Ġlar": 1089,
      "Ġmed": 1090,
      "Ġstart": 1091,
      "uc": 1092,
      "sh": 1093,
      "Ġprog": 1094,
      "ĠCom": 1095,
      "Ġchar": 1096,
      "Ġcor": 1097,
      "cent": 1098,
      "frac": 1099,
      "cer": 1100,
      "ĠAnd": 1101,
      "Ġgreat": 1102,
      "ined": 1103,
      "Ġagain": 1104,
      "inal": 1105,
      "self": 1106,
      "Ġpat": 1107,
      "Ġown": 1108,
      "ĠBut": 1109,
      "ave": 1110,
      "ds": 1111,
      "ug": 1112,
      "ection": 1113,
      "up": 1114,
      "ody": 1115,
      "Ġeffect": 1116,
      "Ġexample": 1117,
      "Ġperson": 1118,
      "cial": 1119,
      "Ġhum": 1120,
      "iel": 1121,
      "ĠYou": 1122,
      "ĠAs": 1123,
      "Ġlit": 1124,
      "ĠAmeric": 1125,
      "ather": 1126,
      "Ġ18": 1127,
      "Ġthough": 1128,
      "Ġmon": 1129,
      "ĠThey": 1130,
      "ized": 1131,
      "Ġtake": 1132,
      "Ġcommun": 1133,
      "hem": 1134,
      "ven": 1135,
      "ĠRe": 1136,
      "Ġprocess": 1137,
      "Ġlist": 1138,
      "Ġappro": 1139,
      "read": 1140,
      "Ġduring": 1141,
      "iqu": 1142,
      "Ġreal": 1143,
      "Ġposs": 1144,
      "Ġfam": 1145,
      "Ġtechn": 1146,
      "Ġsk": 1147,
      "Ġtest": 1148,
      "Ġunderstand": 1149,
      "Ġhealth": 1150,
      "Ġthink": 1151,
      "Ġart": 1152,
      "akes": 1153,
      "Ġgrou": 1154,
      "ves": 1155,
      "der": 1156,
      "Ġdep": 1157,
      "Ġser": 1158,
      "Ġ&": 1159,
      "arm": 1160,
      "ases": 1161,
      "con": 1162,
      "Ġmade": 1163,
      "ants": 1164,
      "ock": 1165,
      "rent": 1166,
      "Ġrese": 1167,
      "ĠEx": 1168,
      "13": 1169,
      "ctions": 1170,
      "Ġgu": 1171,
      "Ġmight": 1172,
      "Ġaround": 1173,
      "Ġlife": 1174,
      "Ġsmall": 1175,
      "ork": 1176,
      "Ġless": 1177,
      "und": 1178,
      "ier": 1179,
      "Ġconst": 1180,
      "Ġlevel": 1181,
      "Ġhand": 1182,
      "uss": 1183,
      "Ġmust": 1184,
      "Ġaut": 1185,
      "ĠQ": 1186,
      "any": 1187,
      "air": 1188,
      "str": 1189,
      "Ġansw": 1190,
      "Ġcal": 1191,
      "Ġinformation": 1192,
      "Ġcalled": 1193,
      "turn": 1194,
      "Ġstudents": 1195,
      "ublic": 1196,
      ",\"": 1197,
      "Ġstate": 1198,
      "Ġca": 1199,
      "//": 1200,
      "Ġlead": 1201,
      "ale": 1202,
      "Ġdire": 1203,
      "Ġhist": 1204,
      "ted": 1205,
      "Ġline": 1206,
      "ety": 1207,
      "Ġclass": 1208,
      "Ġsay": 1209,
      "Ġconf": 1210,
      "Ġthree": 1211,
      "Ġlet": 1212,
      "{\\": 1213,
      "ode": 1214,
      "Ġop": 1215,
      "ething": 1216,
      "Ġpar": 1217,
      "Ġ`": 1218,
      "ull": 1219,
      "Ġday": 1220,
      "ator": 1221,
      "Ġvari": 1222,
      "ider": 1223,
      "19": 1224,
      "Ġgl": 1225,
      "Ġpop": 1226,
      "Ġpower": 1227,
      "vern": 1228,
      "way": 1229,
      "ides": 1230,
      "ivers": 1231,
      "Ġmem": 1232,
      "Ġ12": 1233,
      "Ġstill": 1234,
      "day": 1235,
      "Ġbel": 1236,
      "Ġbr": 1237,
      "Ġtri": 1238,
      "ision": 1239,
      "This": 1240,
      "ner": 1241,
      "ross": 1242,
      "ash": 1243,
      "ien": 1244,
      "ional": 1245,
      "land": 1246,
      "ters": 1247,
      "Ġav": 1248,
      "Ġsomething": 1249,
      "Ġserv": 1250,
      "itive": 1251,
      "ĠAr": 1252,
      "Ġsl": 1253,
      "Ġcontin": 1254,
      "comment": 1255,
      "ets": 1256,
      "iron": 1257,
      "Ġvalue": 1258,
      "Ġanother": 1259,
      "Ġhere": 1260,
      "erest": 1261,
      "ĠWh": 1262,
      "Ġimportant": 1263,
      "ah": 1264,
      "dition": 1265,
      "Ġschool": 1266,
      "ox": 1267,
      "put": 1268,
      "ense": 1269,
      "ĠWhat": 1270,
      "imate": 1271,
      "ability": 1272,
      "Ġplan": 1273,
      "Ġthings": 1274,
      "âĢĶ": 1275,
      "Ġallow": 1276,
      "hip": 1277,
      "Ġest": 1278,
      "Ġgiven": 1279,
      "Ġoften": 1280,
      "Ġgrow": 1281,
      "ared": 1282,
      "Ġmult": 1283,
      "ected": 1284,
      "Ġmain": 1285,
      "Ġmean": 1286,
      "ways": 1287,
      "ote": 1288,
      "Ġstand": 1289,
      "____": 1290,
      "Ġchildren": 1291,
      "ains": 1292,
      "Ġwithin": 1293,
      "ton": 1294,
      "Ġlook": 1295,
      "to": 1296,
      "ify": 1297,
      "ci": 1298,
      "}$": 1299,
      "ank": 1300,
      "Ġcare": 1301,
      "ĠSo": 1302,
      "de": 1303,
      "irc": 1304,
      "Ġ$$": 1305,
      "ars": 1306,
      "ĠThere": 1307,
      "Ġcle": 1308,
      "for": 1309,
      "Ġcour": 1310,
      "ality": 1311,
      "ason": 1312,
      "Ġdesign": 1313,
      "less": 1314,
      "pro": 1315,
      "omen": 1316,
      "Ġele": 1317,
      "itions": 1318,
      "ĊĠ": 1319,
      "Ġhapp": 1320,
      "Ġadv": 1321,
      "rol": 1322,
      "Ġpract": 1323,
      "ĠNew": 1324,
      "Ġfood": 1325,
      "ired": 1326,
      "gg": 1327,
      "50": 1328,
      "ral": 1329,
      "raph": 1330,
      "Ġmeas": 1331,
      "Ġide": 1332,
      "right": 1333,
      "'re": 1334,
      "be": 1335,
      "ĠSe": 1336,
      "ĠSh": 1337,
      "ead": 1338,
      "ertain": 1339,
      "Ġpass": 1340,
      "Ġbetter": 1341,
      "ĠCon": 1342,
      "ization": 1343,
      "Ġocc": 1344,
      "ished": 1345,
      "els": 1346,
      "Ġstudy": 1347,
      "Ġquestion": 1348,
      "Ġeas": 1349,
      "Ġbeh": 1350,
      "Ġchange": 1351,
      "Ġcommon": 1352,
      "Ġwithout": 1353,
      "oss": 1354,
      "ethod": 1355,
      "oh": 1356,
      "Ġsecond": 1357,
      "viron": 1358,
      "here": 1359,
      "ital": 1360,
      "ering": 1361,
      "Ġel": 1362,
      "Ġcell": 1363,
      "Ġvis": 1364,
      "Ġplace": 1365,
      "ining": 1366,
      "Ġ:": 1367,
      "elf": 1368,
      "Ġche": 1369,
      "Ġinterest": 1370,
      "Ġinc": 1371,
      "Ġsupport": 1372,
      "Ġeng": 1373,
      "atic": 1374,
      "Ġlearn": 1375,
      "----------------": 1376,
      "ividual": 1377,
      "Ġlast": 1378,
      "ger": 1379,
      "Ġmet": 1380,
      "Ġwrit": 1381,
      "Ġrun": 1382,
      "view": 1383,
      "app": 1384,
      "Ġbuild": 1385,
      "Ġproblem": 1386,
      "Ġchang": 1387,
      "ples": 1388,
      "Ġgoing": 1389,
      "St": 1390,
      "Ġhuman": 1391,
      "Ġprot": 1392,
      "oun": 1393,
      "Ġ<": 1394,
      "It": 1395,
      "line": 1396,
      "Ġtry": 1397,
      "ilar": 1398,
      "ĠAd": 1399,
      "Ġanswer": 1400,
      "sc": 1401,
      "ergy": 1402,
      "osed": 1403,
      "ĠCl": 1404,
      "ames": 1405,
      "ĠX": 1406,
      "Ġident": 1407,
      "pect": 1408,
      "Ġbody": 1409,
      "Ġorgan": 1410,
      "Ġprof": 1411,
      "ption": 1412,
      "Ġtyp": 1413,
      "Ġelect": 1414,
      "Ġturn": 1415,
      "Ġfew": 1416,
      "mon": 1417,
      "ior": 1418,
      "Ġcase": 1419,
      "ĠDe": 1420,
      "ield": 1421,
      "iving": 1422,
      "ouse": 1423,
      "ids": 1424,
      "ĠThese": 1425,
      "Ġactiv": 1426,
      "Ġseem": 1427,
      "riend": 1428,
      "ots": 1429,
      ".,": 1430,
      "Ġredu": 1431,
      "Ġproduct": 1432,
      "par": 1433,
      "Ġindividual": 1434,
      "Ġfollowing": 1435,
      "Ġinteg": 1436,
      "ination": 1437,
      "Ġobject": 1438,
      "Ġsit": 1439,
      "man": 1440,
      "Ġfeel": 1441,
      "ĠIs": 1442,
      "Ġinvol": 1443,
      "ctor": 1444,
      "Ġris": 1445,
      "Ġve": 1446,
      "Ġopp": 1447,
      "Ġ{": 1448,
      "Ġz": 1449,
      "aj": 1450,
      "Ġter": 1451,
      "Ġlight": 1452,
      "ulation": 1453,
      "Ġaff": 1454,
      "Ġreally": 1455,
      "tt": 1456,
      "az": 1457,
      "14": 1458,
      "Ġtreat": 1459,
      "agn": 1460,
      "Ġsince": 1461,
      "Ġlarge": 1462,
      "ik": 1463,
      "Ġgovern": 1464,
      "ĠInd": 1465,
      "Ġmov": 1466,
      "thing": 1467,
      "Ġfin": 1468,
      "Ġcurrent": 1469,
      "Ġtop": 1470,
      "Ġpres": 1471,
      "Ġopen": 1472,
      "15": 1473,
      "cing": 1474,
      "Ġmeans": 1475,
      "Ġ*": 1476,
      "ories": 1477,
      "Ġarea": 1478,
      "of": 1479,
      "acter": 1480,
      "ern": 1481,
      "Ġpot": 1482,
      "Ġoper": 1483,
      "Ġbelie": 1484,
      "Ġiss": 1485,
      "Ġmar": 1486,
      "Ġalways": 1487,
      "Ġwhy": 1488,
      "ocial": 1489,
      "gen": 1490,
      "Ġdel": 1491,
      "Ġsum": 1492,
      "Ġknown": 1493,
      "Ġpossible": 1494,
      "ron": 1495,
      "Ġprob": 1496,
      "ĠSc": 1497,
      "ently": 1498,
      "vironment": 1499,
      "Ġincluding": 1500,
      "Ġkeep": 1501,
      "Ġmethod": 1502,
      "amp": 1503,
      "ength": 1504,
      "ĠÂł": 1505,
      "Ġnumbers": 1506,
      "Ġsym": 1507,
      "over": 1508,
      "Ġ15": 1509,
      "ither": 1510,
      "iversity": 1511,
      "olution": 1512,
      "ray": 1513,
      "18": 1514,
      "bs": 1515,
      "tain": 1516,
      "ression": 1517,
      "Ġâ": 1518,
      "Ġenergy": 1519,
      "Ġbest": 1520,
      "ration": 1521,
      "hers": 1522,
      ".âĢĿ": 1523,
      "Ġbas": 1524,
      "Ġname": 1525,
      "Ġcalcul": 1526,
      "val": 1527,
      "Ġlaw": 1528,
      "Ġtimes": 1529,
      "Ġcap": 1530,
      "Ġreport": 1531,
      "Ġcult": 1532,
      "ling": 1533,
      "aterial": 1534,
      "16": 1535,
      "ury": 1536,
      "Ġcome": 1537,
      "ards": 1538,
      "ĠLe": 1539,
      "arent": 1540,
      "ries": 1541,
      "Ġpur": 1542,
      "Ġdra": 1543,
      "Ġold": 1544,
      "Ġhead": 1545,
      "````": 1546,
      "Ġpost": 1547,
      "ember": 1548,
      "Ġself": 1549,
      "Ġmot": 1550,
      "ources": 1551,
      "iness": 1552,
      "orn": 1553,
      "reen": 1554,
      "Ġproject": 1555,
      "Ġresearch": 1556,
      "Ġ199": 1557,
      "Ġbre": 1558,
      "Ġanal": 1559,
      "Ġbased": 1560,
      "ccess": 1561,
      "ĠTo": 1562,
      "Ġmove": 1563,
      "Ġland": 1564,
      "ention": 1565,
      "Ġconn": 1566,
      "ĠWhen": 1567,
      "Ġperform": 1568,
      "uro": 1569,
      "Ġsays": 1570,
      "Ġhome": 1571,
      "Ġdesc": 1572,
      "Ġgroup": 1573,
      "If": 1574,
      "angu": 1575,
      "Ġlittle": 1576,
      "ably": 1577,
      "Ġunt": 1578,
      "eral": 1579,
      "rodu": 1580,
      "ope": 1581,
      "iod": 1582,
      "Ġwr": 1583,
      "Ġvol": 1584,
      "Ġmil": 1585,
      "Ġproper": 1586,
      "Ġhard": 1587,
      "Ġpublic": 1588,
      "Ġorder": 1589,
      "Ġagainst": 1590,
      "gin": 1591,
      "Ġpresent": 1592,
      "We": 1593,
      "Ġbo": 1594,
      "........": 1595,
      "ified": 1596,
      "Ġothers": 1597,
      "ĠThat": 1598,
      "Ġprom": 1599,
      "Ġmark": 1600,
      "Ġput": 1601,
      "Ġtem": 1602,
      "Ġparticular": 1603,
      "Ġorig": 1604,
      "Ġmill": 1605,
      "alk": 1606,
      "Ġbra": 1607,
      "play": 1608,
      "ek": 1609,
      "Ġimm": 1610,
      "Ġsignific": 1611,
      "Ġnext": 1612,
      "Ġ16": 1613,
      "Ġdev": 1614,
      "Ġpercent": 1615,
      "ats": 1616,
      "iver": 1617,
      "ĠBy": 1618,
      "ients": 1619,
      "ances": 1620,
      "Ġphys": 1621,
      "ware": 1622,
      "Ġcreat": 1623,
      "ource": 1624,
      "conom": 1625,
      "gether": 1626,
      "yle": 1627,
      "Ġtogether": 1628,
      "Ġcost": 1629,
      "Ġnon": 1630,
      "by": 1631,
      "Ġhy": 1632,
      "Ġsever": 1633,
      "Ġside": 1634,
      "Ġ--": 1635,
      "lish": 1636,
      "Ġcr": 1637,
      "ĠHowever": 1638,
      "rop": 1639,
      "}\\": 1640,
      "oms": 1641,
      "Ġleft": 1642,
      "ided": 1643,
      "^{": 1644,
      "Ġmus": 1645,
      "ians": 1646,
      "Ġcertain": 1647,
      "not": 1648,
      "ĠPl": 1649,
      "Ġfriend": 1650,
      "uct": 1651,
      "Ġnever": 1652,
      "ables": 1653,
      "Ġrest": 1654,
      "Ġlim": 1655,
      "'m": 1656,
      "ium": 1657,
      "Ġprogram": 1658,
      "Ġbecome": 1659,
      "ĠAmerican": 1660,
      "me": 1661,
      "Ġimpro": 1662,
      "ograph": 1663,
      "Ġeduc": 1664,
      "ĠâĢ¢": 1665,
      "Ġconsider": 1666,
      "ording": 1667,
      "ĠZ": 1668,
      "Ġpress": 1669,
      "por": 1670,
      "ĠPh": 1671,
      "Ġfour": 1672,
      "Ġtype": 1673,
      "ĠEng": 1674,
      "ane": 1675,
      "outh": 1676,
      "ills": 1677,
      "Ġbus": 1678,
      "Ġnear": 1679,
      "oney": 1680,
      "imal": 1681,
      "ample": 1682,
      "Ġes": 1683,
      "_{": 1684,
      "urther": 1685,
      "Ġseveral": 1686,
      "Ġvarious": 1687,
      "Ġsing": 1688,
      "Ġmaterial": 1689,
      "ape": 1690,
      "Ġpri": 1691,
      "Ġfar": 1692,
      "Ġleg": 1693,
      "Ġview": 1694,
      "Ġgame": 1695,
      "atch": 1696,
      "As": 1697,
      "ĠBe": 1698,
      "vious": 1699,
      "Ġabove": 1700,
      "icle": 1701,
      "Ġmaking": 1702,
      "Ġfil": 1703,
      "atural": 1704,
      "Ġben": 1705,
      "Ġ17": 1706,
      "Ġfamily": 1707,
      "Ġcaus": 1708,
      "ental": 1709,
      "Ġdeterm": 1710,
      "Ġ14": 1711,
      "Ġmulti": 1712,
      "Ġrepresent": 1713,
      "Ġcreate": 1714,
      "ication": 1715,
      "ived": 1716,
      "ĠRes": 1717,
      "ocus": 1718,
      "ploy": 1719,
      "Ġsqu": 1720,
      "Ġuntil": 1721,
      "Ġwomen": 1722,
      "Ġdirect": 1723,
      "idence": 1724,
      "Ġproblems": 1725,
      "oring": 1726,
      "utions": 1727,
      "Ġamong": 1728,
      "ique": 1729,
      "Ġreturn": 1730,
      "Ġenvironment": 1731,
      "oint": 1732,
      "pos": 1733,
      "Ġinclude": 1734,
      "Ġhistory": 1735,
      "Ġdise": 1736,
      "Ġrad": 1737,
      "What": 1738,
      "Ġblood": 1739,
      "Ġet": 1740,
      "17": 1741,
      "idd": 1742,
      "omet": 1743,
      "Ġwar": 1744,
      "Ġgive": 1745,
      "aces": 1746,
      "ogn": 1747,
      "Ġlow": 1748,
      "ĠOr": 1749,
      "min": 1750,
      "ĠĠĠĠĠ": 1751,
      "ged": 1752,
      "ume": 1753,
      "Ġloo": 1754,
      "Ġfree": 1755,
      "Ġable": 1756,
      "ological": 1757,
      "Ġcirc": 1758,
      "Ġ13": 1759,
      "ateg": 1760,
      "ext": 1761,
      "Ġstep": 1762,
      "Ġdri": 1763,
      "Ġbig": 1764,
      "Ġamount": 1765,
      "Ġalong": 1766,
      "ĠCan": 1767,
      "ajor": 1768,
      "Ġask": 1769,
      "ĠWor": 1770,
      "Ġpotential": 1771,
      "oid": 1772,
      "rist": 1773,
      "Ġcontrol": 1774,
      "Ġcomput": 1775,
      "Ġhour": 1776,
      "Ġsocial": 1777,
      "Ġtext": 1778,
      "ission": 1779,
      "Ġlangu": 1780,
      "Ġvalues": 1781,
      "tal": 1782,
      "Ġearly": 1783,
      "Ġworks": 1784,
      "Ġsaf": 1785,
      "AT": 1786,
      "ole": 1787,
      "An": 1788,
      "lu": 1789,
      "Ġmonth": 1790,
      "Ġenough": 1791,
      "oot": 1792,
      "Ġcourse": 1793,
      "Ġdays": 1794,
      "ĠAt": 1795,
      "Ġfore": 1796,
      "ument": 1797,
      "ending": 1798,
      "ffic": 1799,
      "Ġfre": 1800,
      "Ġdiscuss": 1801,
      "aps": 1802,
      "Ġeconom": 1803,
      "Ġaway": 1804,
      "ĠSp": 1805,
      "Ġlength": 1806,
      "oad": 1807,
      "Ġthing": 1808,
      "Ġbro": 1809,
      "usion": 1810,
      "Ġsimilar": 1811,
      "ruct": 1812,
      "Ġlearning": 1813,
      "Ġgovernment": 1814,
      "Ġkind": 1815,
      "Ġquestions": 1816,
      "Ġavail": 1817,
      "Ġmeasure": 1818,
      "br": 1819,
      "Ġspace": 1820,
      "Ġer": 1821,
      "ww": 1822,
      "rap": 1823,
      "aster": 1824,
      "Ġ30": 1825,
      "ĠUniversity": 1826,
      "hor": 1827,
      "orth": 1828,
      "'ve": 1829,
      "Ġ11": 1830,
      "Ġ,": 1831,
      "Ġmen": 1832,
      "mit": 1833,
      "ately": 1834,
      "Ġcomb": 1835,
      "Ġsure": 1836,
      "Ġheart": 1837,
      "Ġchall": 1838,
      "Ġant": 1839,
      "Ġperiod": 1840,
      "Ġair": 1841,
      "though": 1842,
      "ised": 1843,
      "ĠShe": 1844,
      "Ġaddition": 1845,
      "Ġsignificant": 1846,
      "sy": 1847,
      "Ġsuccess": 1848,
      "Ġkey": 1849,
      "Ġdue": 1850,
      "ER": 1851,
      "Ġhig": 1852,
      "Ġdevelopment": 1853,
      "ĠCol": 1854,
      "rect": 1855,
      "Ġprovide": 1856,
      "Ġoccur": 1857,
      "25": 1858,
      "Ġ100": 1859,
      "ĠQu": 1860,
      "ina": 1861,
      "Ġpain": 1862,
      "Ġpast": 1863,
      "ortun": 1864,
      "abor": 1865,
      "))": 1866,
      "Ġinvest": 1867,
      "face": 1868,
      "uture": 1869,
      "Ġenc": 1870,
      "vert": 1871,
      "Ġgr": 1872,
      "work": 1873,
      "Ġsw": 1874,
      "ird": 1875,
      "Ġspecial": 1876,
      "Ġspecific": 1877,
      "Ġstruct": 1878,
      "Ġleast": 1879,
      "Ġcrit": 1880,
      "comm": 1881,
      "Ġsugg": 1882,
      "ended": 1883,
      "Ġsuggest": 1884,
      "Ġtre": 1885,
      "Ġcomplex": 1886,
      "Ġlocal": 1887,
      "Ġhaving": 1888,
      "ĠIm": 1889,
      "left": 1890,
      "Ġrange": 1891,
      "ush": 1892,
      "'ll": 1893,
      "etic": 1894,
      "Ġ$\\": 1895,
      "Ġtell": 1896,
      "Ġopt": 1897,
      "arc": 1898,
      "Ġess": 1899,
      "Ġeither": 1900,
      "Ġrece": 1901,
      "Ġexist": 1902,
      "ively": 1903,
      "):": 1904,
      "Ġyoung": 1905,
      "lease": 1906,
      "iction": 1907,
      "There": 1908,
      "Ġpa": 1909,
      "Ġnorm": 1910,
      "lished": 1911,
      "Ġdiv": 1912,
      "Ġang": 1913,
      "30": 1914,
      "Ġshort": 1915,
      "ee": 1916,
      "Ġclear": 1917,
      "function": 1918,
      "ler": 1919,
      "Ġfocus": 1920,
      "Ġrelations": 1921,
      "Ġequal": 1922,
      "ma": 1923,
      "âĢĵ": 1924,
      "Ġey": 1925,
      "For": 1926,
      "You": 1927,
      "Ġmajor": 1928,
      "Ġacross": 1929,
      "Ġrisk": 1930,
      "Ġappear": 1931,
      "Ġaccess": 1932,
      "ĠAll": 1933,
      "Ġdig": 1934,
      "hy": 1935,
      "ĊĊĠĠĠ": 1936,
      "pecial": 1937,
      "Ġreason": 1938,
      "Ġlater": 1939,
      "ĠOn": 1940,
      "Ġassoci": 1941,
      "Ġteam": 1942,
      "Ġways": 1943,
      "Ġapplic": 1944,
      "Ġlog": 1945,
      "Ġobs": 1946,
      "Ġever": 1947,
      "use": 1948,
      "Ġmakes": 1949,
      "Ġgot": 1950,
      "Ġtoward": 1951,
      "Ġfac": 1952,
      "Ġtrue": 1953,
      "Ġavailable": 1954,
      "Ġworking": 1955,
      "ror": 1956,
      "Ġbook": 1957,
      "Ġnecess": 1958,
      "Ġcharacter": 1959,
      "Ġcountry": 1960,
      "Ġmoney": 1961,
      "Ġtoday": 1962,
      "ĠUnited": 1963,
      "ators": 1964,
      "iting": 1965,
      "alf": 1966,
      "igure": 1967,
      "Ġlot": 1968,
      "}}": 1969,
      "Ġwhether": 1970,
      "Ġconcept": 1971,
      "ĠMay": 1972,
      "Ġarg": 1973,
      "Ġcond": 1974,
      "Ġscient": 1975,
      "Ġthought": 1976,
      "utes": 1977,
      "Ġwhole": 1978,
      "Ġpay": 1979,
      "aring": 1980,
      "ns": 1981,
      "ÃĤ": 1982,
      "Ġcause": 1983,
      "side": 1984,
      "aken": 1985,
      "ilities": 1986,
      "ĠCal": 1987,
      "asing": 1988,
      "Ġcomplete": 1989,
      "ĊĠĠĠ": 1990,
      "ored": 1991,
      "Ġpolit": 1992,
      "Ġmodel": 1993,
      "icult": 1994,
      "Ġresults": 1995,
      "200": 1996,
      "Ġdoesn": 1997,
      "ols": 1998,
      "Ġactually": 1999,
      "Ġsimple": 2000,
      "inking": 2001,
      "osp": 2002,
      "Ġsystems": 2003,
      "ĠOne": 2004,
      "ĠTe": 2005,
      "How": 2006,
      "ges": 2007,
      "Ġage": 2008,
      "yn": 2009,
      "Ex": 2010,
      "Ġdone": 2011,
      "Ġstrong": 2012,
      "\\\\": 2013,
      "Ġunderstanding": 2014,
      "Ġfr": 2015,
      "verage": 2016,
      "angle": 2017,
      "ained": 2018,
      "Ġinit": 2019,
      "Ġpoints": 2020,
      "||": 2021,
      "ta": 2022,
      "Ġwords": 2023,
      "Ġterm": 2024,
      "selves": 2025,
      "Ġareas": 2026,
      "apter": 2027,
      "eter": 2028,
      "ĠMar": 2029,
      "istic": 2030,
      "Ġnatural": 2031,
      "ĠĠĠĠĠĠ": 2032,
      "new": 2033,
      "erc": 2034,
      "Ġtotal": 2035,
      "une": 2036,
      "Ġintern": 2037,
      "ledge": 2038,
      "Ġfuture": 2039,
      "ann": 2040,
      "Ġsingle": 2041,
      "Ġhappen": 2042,
      "Ġbi": 2043,
      "ency": 2044,
      "text": 2045,
      "ym": 2046,
      "erence": 2047
    },
    "merges": [
      [
        "Ġ",
        "t"
      ],
      [
        "Ġ",
        "a"
      ],
      [
        "i",
        "n"
      ],
      [
        "h",
        "e"
      ],
      [
        "r",
        "e"
      ],
      [
        "o",
        "n"
      ],
      [
        "Ġt",
        "he"
      ],
      [
        "e",
        "r"
      ],
      [
        "Ġ",
        "s"
      ],
      [
        "a",
        "t"
      ],
      [
        "Ġ",
        "o"
      ],
      [
        "e",
        "n"
      ],
      [
        "Ġ",
        "c"
      ],
      [
        "Ġ",
        "w"
      ],
      [
        "e",
        "s"
      ],
      [
        "i",
        "s"
      ],
      [
        "i",
        "t"
      ],
      [
        "n",
        "d"
      ],
      [
        "o",
        "r"
      ],
      [
        "a",
        "l"
      ],
      [
        "in",
        "g"
      ],
      [
        "Ġ",
        "p"
      ],
      [
        "Ġ",
        "f"
      ],
      [
        "Ġ",
        "b"
      ],
      [
        "o",
        "u"
      ],
      [
        "a",
        "n"
      ],
      [
        "e",
        "d"
      ],
      [
        "Ġo",
        "f"
      ],
      [
        "Ġ",
        "m"
      ],
      [
        "a",
        "r"
      ],
      [
        "Ġ",
        "in"
      ],
      [
        "Ġ",
        "d"
      ],
      [
        "Ġt",
        "o"
      ],
      [
        "i",
        "on"
      ],
      [
        "i",
        "c"
      ],
      [
        "Ġa",
        "nd"
      ],
      [
        "l",
        "e"
      ],
      [
        "Ġ",
        "Ġ"
      ],
      [
        "o",
        "m"
      ],
      [
        "Ġt",
        "h"
      ],
      [
        "a",
        "s"
      ],
      [
        "Ġ",
        "h"
      ],
      [
        "en",
        "t"
      ],
      [
        "Ġ",
        "e"
      ],
      [
        "c",
        "t"
      ],
      [
        "Ġ",
        "n"
      ],
      [
        "r",
        "o"
      ],
      [
        "Ġ",
        "l"
      ],
      [
        "v",
        "e"
      ],
      [
        "Ġ",
        "re"
      ],
      [
        "s",
        "t"
      ],
      [
        "i",
        "l"
      ],
      [
        "e",
        "t"
      ],
      [
        "l",
        "y"
      ],
      [
        "Ġ",
        "is"
      ],
      [
        "Ġ",
        "g"
      ],
      [
        "i",
        "m"
      ],
      [
        "u",
        "t"
      ],
      [
        "s",
        "e"
      ],
      [
        "o",
        "t"
      ],
      [
        "Ġ",
        "T"
      ],
      [
        "Ġb",
        "e"
      ],
      [
        "r",
        "a"
      ],
      [
        "i",
        "d"
      ],
      [
        "o",
        "l"
      ],
      [
        "o",
        "w"
      ],
      [
        "at",
        "ion"
      ],
      [
        "c",
        "e"
      ],
      [
        "i",
        "g"
      ],
      [
        "Ġ",
        "I"
      ],
      [
        "Ġ",
        "u"
      ],
      [
        "Ġ",
        "y"
      ],
      [
        "Ġ",
        "A"
      ],
      [
        "Ġf",
        "or"
      ],
      [
        "Ġs",
        "t"
      ],
      [
        "Ġth",
        "at"
      ],
      [
        "u",
        "r"
      ],
      [
        "Ġ",
        "S"
      ],
      [
        "Ġ",
        "on"
      ],
      [
        "c",
        "h"
      ],
      [
        "v",
        "er"
      ],
      [
        "ĠĠ",
        "ĠĠ"
      ],
      [
        "a",
        "y"
      ],
      [
        "a",
        "m"
      ],
      [
        "â",
        "Ģ"
      ],
      [
        "u",
        "l"
      ],
      [
        "Ġ",
        "C"
      ],
      [
        "Ġ",
        "1"
      ],
      [
        "i",
        "r"
      ],
      [
        "Ġy",
        "ou"
      ],
      [
        "e",
        "l"
      ],
      [
        "it",
        "h"
      ],
      [
        "Ġ",
        "it"
      ],
      [
        "a",
        "d"
      ],
      [
        "i",
        "f"
      ],
      [
        "he",
        "r"
      ],
      [
        "Ġa",
        "n"
      ],
      [
        "Ġa",
        "s"
      ],
      [
        "Ġc",
        "on"
      ],
      [
        "Ġ",
        "("
      ],
      [
        "Ġw",
        "h"
      ],
      [
        "Ġw",
        "ith"
      ],
      [
        "t",
        "er"
      ],
      [
        "-",
        "-"
      ],
      [
        "u",
        "m"
      ],
      [
        "Ġp",
        "ro"
      ],
      [
        "Ġa",
        "l"
      ],
      [
        "Ġa",
        "re"
      ],
      [
        "Ġ",
        "M"
      ],
      [
        "Ġo",
        "r"
      ],
      [
        "g",
        "e"
      ],
      [
        "o",
        "d"
      ],
      [
        "q",
        "u"
      ],
      [
        "at",
        "e"
      ],
      [
        "er",
        "s"
      ],
      [
        "Ġ",
        "P"
      ],
      [
        "is",
        "t"
      ],
      [
        "Ġe",
        "x"
      ],
      [
        "Ġ",
        "2"
      ],
      [
        "Ġ",
        "he"
      ],
      [
        "m",
        "ent"
      ],
      [
        "Ġw",
        "e"
      ],
      [
        "ĠT",
        "he"
      ],
      [
        "a",
        "b"
      ],
      [
        "t",
        "h"
      ],
      [
        "r",
        "i"
      ],
      [
        "Ġ",
        "v"
      ],
      [
        "k",
        "e"
      ],
      [
        "Ġ",
        "B"
      ],
      [
        "Ġc",
        "om"
      ],
      [
        "il",
        "l"
      ],
      [
        "Â",
        "ł"
      ],
      [
        "Ġd",
        "e"
      ],
      [
        "o",
        "re"
      ],
      [
        "o",
        "p"
      ],
      [
        "l",
        "d"
      ],
      [
        "es",
        "s"
      ],
      [
        "es",
        "t"
      ],
      [
        "Ġh",
        "a"
      ],
      [
        "Ġa",
        "t"
      ],
      [
        "u",
        "s"
      ],
      [
        "re",
        "s"
      ],
      [
        "e",
        "ct"
      ],
      [
        "u",
        "n"
      ],
      [
        "ig",
        "h"
      ],
      [
        "Ġ",
        "W"
      ],
      [
        "o",
        "s"
      ],
      [
        "it",
        "y"
      ],
      [
        "p",
        "p"
      ],
      [
        "r",
        "om"
      ],
      [
        "Ġ",
        "H"
      ],
      [
        "a",
        "c"
      ],
      [
        "i",
        "ve"
      ],
      [
        "i",
        "es"
      ],
      [
        "e",
        "m"
      ],
      [
        "i",
        "v"
      ],
      [
        "Ġs",
        "u"
      ],
      [
        "Ġb",
        "y"
      ],
      [
        "Ġ",
        "D"
      ],
      [
        "Ġ",
        "r"
      ],
      [
        "n",
        "t"
      ],
      [
        "a",
        "in"
      ],
      [
        "an",
        "t"
      ],
      [
        "Ġ",
        "F"
      ],
      [
        "Ġ",
        "E"
      ],
      [
        "Ġn",
        "e"
      ],
      [
        "'",
        "s"
      ],
      [
        "Ġ",
        "R"
      ],
      [
        "Ġs",
        "e"
      ],
      [
        "Ġc",
        "an"
      ],
      [
        "en",
        "d"
      ],
      [
        "a",
        "nd"
      ],
      [
        "al",
        "l"
      ],
      [
        "Ġc",
        "h"
      ],
      [
        "0",
        "0"
      ],
      [
        "Ġth",
        "is"
      ],
      [
        "Ġw",
        "as"
      ],
      [
        "Ġn",
        "ot"
      ],
      [
        "o",
        "c"
      ],
      [
        "igh",
        "t"
      ],
      [
        "Ġ",
        "="
      ],
      [
        "Ġf",
        "rom"
      ],
      [
        "or",
        "t"
      ],
      [
        "ar",
        "t"
      ],
      [
        "Ġ",
        "le"
      ],
      [
        "Ġha",
        "ve"
      ],
      [
        "u",
        "re"
      ],
      [
        "u",
        "d"
      ],
      [
        "Ġ",
        "N"
      ],
      [
        "p",
        "l"
      ],
      [
        "Ġs",
        "h"
      ],
      [
        "i",
        "al"
      ],
      [
        "Ġ",
        "L"
      ],
      [
        "ou",
        "ld"
      ],
      [
        "ct",
        "ion"
      ],
      [
        "ic",
        "al"
      ],
      [
        "Ġa",
        "b"
      ],
      [
        "Ġ",
        "G"
      ],
      [
        "ĠĠĠĠ",
        "ĠĠĠĠ"
      ],
      [
        ".",
        "."
      ],
      [
        "ou",
        "t"
      ],
      [
        "in",
        "e"
      ],
      [
        "o",
        "g"
      ],
      [
        "e",
        "re"
      ],
      [
        "u",
        "st"
      ],
      [
        "p",
        "t"
      ],
      [
        "om",
        "e"
      ],
      [
        "g",
        "h"
      ],
      [
        "r",
        "ou"
      ],
      [
        "p",
        "e"
      ],
      [
        "a",
        "g"
      ],
      [
        "Ġin",
        "t"
      ],
      [
        "Ġw",
        "or"
      ],
      [
        "Ġ",
        "k"
      ],
      [
        "ar",
        "d"
      ],
      [
        "Ġu",
        "s"
      ],
      [
        "ou",
        "r"
      ],
      [
        "o",
        "st"
      ],
      [
        "t",
        "her"
      ],
      [
        "Ġ",
        "O"
      ],
      [
        "p",
        "er"
      ],
      [
        "a",
        "re"
      ],
      [
        "Ġw",
        "he"
      ],
      [
        "ic",
        "h"
      ],
      [
        "Ġp",
        "l"
      ],
      [
        "--",
        "--"
      ],
      [
        "Ġ",
        "en"
      ],
      [
        "Ġd",
        "o"
      ],
      [
        "Ġ",
        "âĢ"
      ],
      [
        "p",
        "le"
      ],
      [
        "ion",
        "s"
      ],
      [
        "Ġ",
        "im"
      ],
      [
        "âĢ",
        "Ļ"
      ],
      [
        "T",
        "he"
      ],
      [
        "i",
        "z"
      ],
      [
        "a",
        "ge"
      ],
      [
        "Ġthe",
        "y"
      ],
      [
        "el",
        "l"
      ],
      [
        "Ġ",
        "\""
      ],
      [
        "id",
        "e"
      ],
      [
        "a",
        "k"
      ],
      [
        "Ġal",
        "l"
      ],
      [
        "f",
        "f"
      ],
      [
        "Ġyou",
        "r"
      ],
      [
        "ou",
        "s"
      ],
      [
        "ul",
        "t"
      ],
      [
        "as",
        "t"
      ],
      [
        "a",
        "ct"
      ],
      [
        "Ġ",
        "J"
      ],
      [
        "in",
        "d"
      ],
      [
        "Ġthe",
        "ir"
      ],
      [
        "at",
        "ed"
      ],
      [
        "ation",
        "s"
      ],
      [
        "an",
        "s"
      ],
      [
        "Ġm",
        "e"
      ],
      [
        "Ġa",
        "d"
      ],
      [
        "Ġw",
        "ill"
      ],
      [
        "i",
        "e"
      ],
      [
        "Ġ",
        "j"
      ],
      [
        "on",
        "g"
      ],
      [
        "e",
        "ar"
      ],
      [
        "Ġb",
        "ut"
      ],
      [
        "Ġ",
        "3"
      ],
      [
        "i",
        "b"
      ],
      [
        "#",
        "#"
      ],
      [
        "Ġcon",
        "t"
      ],
      [
        "Ġ",
        "U"
      ],
      [
        "Ġre",
        "s"
      ],
      [
        "Ġwh",
        "ich"
      ],
      [
        "u",
        "e"
      ],
      [
        "al",
        "ly"
      ],
      [
        "ĠT",
        "h"
      ],
      [
        "am",
        "e"
      ],
      [
        "d",
        "u"
      ],
      [
        "k",
        "s"
      ],
      [
        "or",
        "m"
      ],
      [
        "Ġg",
        "o"
      ],
      [
        "Ġ",
        "-"
      ],
      [
        "ab",
        "le"
      ],
      [
        "a",
        "p"
      ],
      [
        "ĠI",
        "n"
      ],
      [
        "Ġon",
        "e"
      ],
      [
        "Ġm",
        "ore"
      ],
      [
        "b",
        "er"
      ],
      [
        "Ġd",
        "is"
      ],
      [
        "Ġh",
        "as"
      ],
      [
        "e",
        "p"
      ],
      [
        "im",
        "e"
      ],
      [
        "ar",
        "y"
      ],
      [
        "ve",
        "l"
      ],
      [
        "on",
        "e"
      ],
      [
        "r",
        "y"
      ],
      [
        "an",
        "ce"
      ],
      [
        "c",
        "c"
      ],
      [
        "Ġc",
        "l"
      ],
      [
        "c",
        "l"
      ],
      [
        "ic",
        "e"
      ],
      [
        "i",
        "p"
      ],
      [
        "i",
        "ke"
      ],
      [
        "Ġo",
        "ther"
      ],
      [
        "Ġst",
        "r"
      ],
      [
        "o",
        "o"
      ],
      [
        "Ġo",
        "ut"
      ],
      [
        "Âł",
        "Âł"
      ],
      [
        "i",
        "re"
      ],
      [
        "Ġu",
        "n"
      ],
      [
        "Ġs",
        "o"
      ],
      [
        "ent",
        "s"
      ],
      [
        "Ġab",
        "out"
      ],
      [
        "a",
        "ch"
      ],
      [
        "in",
        "t"
      ],
      [
        "as",
        "s"
      ],
      [
        "a",
        "ke"
      ],
      [
        "ig",
        "n"
      ],
      [
        "Ġ",
        "qu"
      ],
      [
        "Ġm",
        "an"
      ],
      [
        "Ġp",
        "er"
      ],
      [
        "en",
        "ce"
      ],
      [
        "ver",
        "y"
      ],
      [
        "res",
        "s"
      ],
      [
        "Ġ",
        "\\"
      ],
      [
        "s",
        "o"
      ],
      [
        "Ġa",
        "pp"
      ],
      [
        "Ġcom",
        "p"
      ],
      [
        "a",
        "u"
      ],
      [
        "Ġ",
        "$"
      ],
      [
        "Ġa",
        "r"
      ],
      [
        "Ġe",
        "v"
      ],
      [
        "Ġu",
        "p"
      ],
      [
        "as",
        "e"
      ],
      [
        "a",
        "ce"
      ],
      [
        "e",
        "g"
      ],
      [
        "an",
        "g"
      ],
      [
        "ac",
        "k"
      ],
      [
        "Ġwh",
        "o"
      ],
      [
        "i",
        "le"
      ],
      [
        "re",
        "at"
      ],
      [
        "it",
        "e"
      ],
      [
        "Ġt",
        "e"
      ],
      [
        "i",
        "a"
      ],
      [
        "Ġs",
        "p"
      ],
      [
        "n",
        "ow"
      ],
      [
        "Ġ",
        "if"
      ],
      [
        "a",
        "v"
      ],
      [
        "Ġh",
        "is"
      ],
      [
        "ĠS",
        "t"
      ],
      [
        "Ġl",
        "ike"
      ],
      [
        "Ġp",
        "re"
      ],
      [
        "or",
        "s"
      ],
      [
        "Ġs",
        "ome"
      ],
      [
        "Ġthe",
        "re"
      ],
      [
        "c",
        "es"
      ],
      [
        "'",
        "t"
      ],
      [
        "Ġthe",
        "m"
      ],
      [
        "it",
        "ion"
      ],
      [
        "en",
        "s"
      ],
      [
        "Ġwe",
        "re"
      ],
      [
        "Ġp",
        "art"
      ],
      [
        "u",
        "b"
      ],
      [
        "Ġ",
        "0"
      ],
      [
        "Ġ",
        "4"
      ],
      [
        "ay",
        "s"
      ],
      [
        "ou",
        "nt"
      ],
      [
        "or",
        "d"
      ],
      [
        "re",
        "e"
      ],
      [
        "o",
        "se"
      ],
      [
        "c",
        "om"
      ],
      [
        "if",
        "f"
      ],
      [
        "ou",
        "nd"
      ],
      [
        "il",
        "d"
      ],
      [
        "l",
        "ow"
      ],
      [
        "at",
        "er"
      ],
      [
        "Ġs",
        "c"
      ],
      [
        "Ġwhe",
        "n"
      ],
      [
        "Ġh",
        "ow"
      ],
      [
        "Ġint",
        "o"
      ],
      [
        "Ġ1",
        "9"
      ],
      [
        "Ġ",
        "|"
      ],
      [
        "`",
        "`"
      ],
      [
        "Ġw",
        "ould"
      ],
      [
        ")",
        "."
      ],
      [
        "Ġth",
        "an"
      ],
      [
        "Ġal",
        "so"
      ],
      [
        "Ġt",
        "r"
      ],
      [
        "Ġt",
        "ime"
      ],
      [
        "Ġn",
        "um"
      ],
      [
        "or",
        "y"
      ],
      [
        "p",
        "ort"
      ],
      [
        "nd",
        "er"
      ],
      [
        "Ġp",
        "e"
      ],
      [
        "e",
        "w"
      ],
      [
        "k",
        "ing"
      ],
      [
        "Ċ",
        "Ċ"
      ],
      [
        "l",
        "l"
      ],
      [
        "ou",
        "gh"
      ],
      [
        "f",
        "orm"
      ],
      [
        "Ġ",
        "K"
      ],
      [
        "o",
        "od"
      ],
      [
        "p",
        "h"
      ],
      [
        "ĠI",
        "t"
      ],
      [
        "Ġwh",
        "at"
      ],
      [
        "Ġ",
        "ro"
      ],
      [
        "Ġt",
        "w"
      ],
      [
        "t",
        "e"
      ],
      [
        "Ġan",
        "y"
      ],
      [
        "on",
        "d"
      ],
      [
        "ing",
        "s"
      ],
      [
        "r",
        "u"
      ],
      [
        "Ġ",
        "Y"
      ],
      [
        "Ġk",
        "now"
      ],
      [
        "Ġcom",
        "m"
      ],
      [
        "Ġs",
        "y"
      ],
      [
        "Ġ",
        "5"
      ],
      [
        "ĠC",
        "h"
      ],
      [
        "Ġa",
        "g"
      ],
      [
        "a",
        "il"
      ],
      [
        "Ġd",
        "iff"
      ],
      [
        "Ġb",
        "et"
      ],
      [
        "at",
        "h"
      ],
      [
        "Ġ",
        "+"
      ],
      [
        "Ġthe",
        "se"
      ],
      [
        "Ġs",
        "pe"
      ],
      [
        "Ġbe",
        "c"
      ],
      [
        "Ġm",
        "ay"
      ],
      [
        "Ġit",
        "s"
      ],
      [
        "Ġh",
        "ad"
      ],
      [
        "is",
        "h"
      ],
      [
        "m",
        "s"
      ],
      [
        "op",
        "le"
      ],
      [
        "u",
        "al"
      ],
      [
        "Ġst",
        "ud"
      ],
      [
        "rou",
        "gh"
      ],
      [
        "ic",
        "t"
      ],
      [
        "Ġo",
        "ver"
      ],
      [
        "Ġg",
        "et"
      ],
      [
        "Ġ2",
        "0"
      ],
      [
        "x",
        "t"
      ],
      [
        "at",
        "es"
      ],
      [
        "Ġp",
        "o"
      ],
      [
        "Ġ",
        "V"
      ],
      [
        "un",
        "ction"
      ],
      [
        "o",
        "ve"
      ],
      [
        "w",
        "e"
      ],
      [
        "ver",
        "s"
      ],
      [
        "au",
        "se"
      ],
      [
        "on",
        "s"
      ],
      [
        "Ġin",
        "d"
      ],
      [
        "i",
        "ous"
      ],
      [
        "Ġy",
        "ear"
      ],
      [
        "Ġ",
        "ra"
      ],
      [
        "ir",
        "st"
      ],
      [
        "Ġt",
        "ra"
      ],
      [
        "Ġs",
        "a"
      ],
      [
        "Ġo",
        "ur"
      ],
      [
        "Ġu",
        "nder"
      ],
      [
        "l",
        "es"
      ],
      [
        "j",
        "ect"
      ],
      [
        "Ġu",
        "se"
      ],
      [
        "at",
        "ing"
      ],
      [
        "f",
        "t"
      ],
      [
        "Ġtw",
        "o"
      ],
      [
        "s",
        "et"
      ],
      [
        "ĠTh",
        "is"
      ],
      [
        "ol",
        "og"
      ],
      [
        "Ġpe",
        "ople"
      ],
      [
        "âĢ",
        "Ŀ"
      ],
      [
        "Ġn",
        "o"
      ],
      [
        "Ġbe",
        "en"
      ],
      [
        "m",
        "er"
      ],
      [
        "_",
        "_"
      ],
      [
        "ur",
        "n"
      ],
      [
        "er",
        "v"
      ],
      [
        "Ġc",
        "ol"
      ],
      [
        "ic",
        "s"
      ],
      [
        "Ġne",
        "ed"
      ],
      [
        "b",
        "le"
      ],
      [
        "it",
        "ies"
      ],
      [
        "o",
        "v"
      ],
      [
        "Ġc",
        "all"
      ],
      [
        "Ġ",
        "x"
      ],
      [
        "c",
        "re"
      ],
      [
        "Ġne",
        "w"
      ],
      [
        "if",
        "ic"
      ],
      [
        "Ġa",
        "m"
      ],
      [
        "----",
        "----"
      ],
      [
        "Ġcon",
        "s"
      ],
      [
        "Ġre",
        "l"
      ],
      [
        "r",
        "it"
      ],
      [
        "i",
        "an"
      ],
      [
        "Ġof",
        "f"
      ],
      [
        "ter",
        "n"
      ],
      [
        ")",
        ","
      ],
      [
        "y",
        "s"
      ],
      [
        "Ġd",
        "es"
      ],
      [
        "et",
        "h"
      ],
      [
        "Ġon",
        "ly"
      ],
      [
        "ro",
        "w"
      ],
      [
        "Ġm",
        "y"
      ],
      [
        "Ġ",
        "her"
      ],
      [
        "Ġsu",
        "ch"
      ],
      [
        "Ġp",
        "r"
      ],
      [
        "Ġj",
        "ust"
      ],
      [
        "ĠĠ",
        "Ġ"
      ],
      [
        "oo",
        "k"
      ],
      [
        "at",
        "ive"
      ],
      [
        "Ġre",
        "c"
      ],
      [
        "ment",
        "s"
      ],
      [
        "le",
        "ct"
      ],
      [
        "Ġdiff",
        "ere"
      ],
      [
        "Ġex",
        "p"
      ],
      [
        "o",
        "b"
      ],
      [
        "re",
        "d"
      ],
      [
        "Ġb",
        "l"
      ],
      [
        "Ġwor",
        "k"
      ],
      [
        "Ġf",
        "e"
      ],
      [
        "ri",
        "b"
      ],
      [
        "Ġa",
        "ct"
      ],
      [
        "Ġa",
        "cc"
      ],
      [
        "Ġg",
        "en"
      ],
      [
        "Ġp",
        "os"
      ],
      [
        "c",
        "k"
      ],
      [
        "Ġhe",
        "l"
      ],
      [
        "Ġthe",
        "n"
      ],
      [
        "Ġf",
        "irst"
      ],
      [
        "rou",
        "nd"
      ],
      [
        "n",
        "ing"
      ],
      [
        "in",
        "k"
      ],
      [
        "n",
        "e"
      ],
      [
        "f",
        "ul"
      ],
      [
        "Ġth",
        "rough"
      ],
      [
        "ic",
        "k"
      ],
      [
        "Ġo",
        "b"
      ],
      [
        "an",
        "ge"
      ],
      [
        "ul",
        "ar"
      ],
      [
        "Ġ",
        "6"
      ],
      [
        "c",
        "ess"
      ],
      [
        "Ġe",
        "m"
      ],
      [
        "i",
        "ent"
      ],
      [
        "cl",
        "ud"
      ],
      [
        "Ġv",
        "al"
      ],
      [
        "ot",
        "h"
      ],
      [
        "st",
        "em"
      ],
      [
        "Ġc",
        "o"
      ],
      [
        "Ġe",
        "qu"
      ],
      [
        "Ġstr",
        "ing"
      ],
      [
        "he",
        "d"
      ],
      [
        "Ġc",
        "ould"
      ],
      [
        "ĠâĢ",
        "ľ"
      ],
      [
        "h",
        "at"
      ],
      [
        "Ġhel",
        "p"
      ],
      [
        "ow",
        "n"
      ],
      [
        "il",
        "ity"
      ],
      [
        "ut",
        "ion"
      ],
      [
        "ĠĠĠĠĠĠĠĠ",
        "ĠĠĠĠĠĠĠĠ"
      ],
      [
        "al",
        "s"
      ],
      [
        "Ġman",
        "y"
      ],
      [
        "re",
        "n"
      ],
      [
        "f",
        "ter"
      ],
      [
        "Ġad",
        "d"
      ],
      [
        "f",
        "ore"
      ],
      [
        "er",
        "t"
      ],
      [
        "is",
        "e"
      ],
      [
        "Ġwhe",
        "re"
      ],
      [
        "ar",
        "k"
      ],
      [
        "Ġm",
        "ost"
      ],
      [
        "c",
        "ed"
      ],
      [
        "se",
        "l"
      ],
      [
        "he",
        "n"
      ],
      [
        "Ġ2",
        "00"
      ],
      [
        "Ġp",
        "h"
      ],
      [
        "Ġspe",
        "c"
      ],
      [
        "ib",
        "le"
      ],
      [
        "Ġe",
        "ff"
      ],
      [
        "ur",
        "ing"
      ],
      [
        "ol",
        "d"
      ],
      [
        "we",
        "en"
      ],
      [
        "Ġf",
        "unction"
      ],
      [
        "Ġfor",
        "m"
      ],
      [
        "Ġre",
        "m"
      ],
      [
        "u",
        "res"
      ],
      [
        "Ġex",
        "am"
      ],
      [
        "r",
        "ic"
      ],
      [
        "er",
        "m"
      ],
      [
        "ation",
        "al"
      ],
      [
        "Ġsu",
        "b"
      ],
      [
        "Ġas",
        "s"
      ],
      [
        "ra",
        "ct"
      ],
      [
        "Ġnum",
        "ber"
      ],
      [
        "Ġus",
        "ed"
      ],
      [
        "Ġs",
        "im"
      ],
      [
        "it",
        "s"
      ],
      [
        "ĠâĢ",
        "ĵ"
      ],
      [
        "u",
        "ch"
      ],
      [
        "Ġbet",
        "ween"
      ],
      [
        "Ġin",
        "ter"
      ],
      [
        "Ġs",
        "m"
      ],
      [
        "Ġin",
        "v"
      ],
      [
        "Ġa",
        "c"
      ],
      [
        "Ġre",
        "g"
      ],
      [
        "I",
        "n"
      ],
      [
        "l",
        "ic"
      ],
      [
        "1",
        "0"
      ],
      [
        "vel",
        "op"
      ],
      [
        "Ġpro",
        "v"
      ],
      [
        "t",
        "ing"
      ],
      [
        "Ġs",
        "he"
      ],
      [
        "Ġsh",
        "ould"
      ],
      [
        "Ġin",
        "clud"
      ],
      [
        "at",
        "a"
      ],
      [
        "Ġv",
        "ar"
      ],
      [
        "Ġpro",
        "du"
      ],
      [
        "Ġe",
        "very"
      ],
      [
        "as",
        "ed"
      ],
      [
        "i",
        "ed"
      ],
      [
        "Ġe",
        "ach"
      ],
      [
        "ĠH",
        "e"
      ],
      [
        "ĠU",
        "n"
      ],
      [
        "Ġf",
        "l"
      ],
      [
        "ce",
        "pt"
      ],
      [
        "he",
        "s"
      ],
      [
        "ra",
        "m"
      ],
      [
        "w",
        "n"
      ],
      [
        "Ġm",
        "ake"
      ],
      [
        "Ġbec",
        "ause"
      ],
      [
        "Ġin",
        "st"
      ],
      [
        "Ġev",
        "en"
      ],
      [
        "eg",
        "in"
      ],
      [
        "Ġs",
        "et"
      ],
      [
        "Ġse",
        "e"
      ],
      [
        "e",
        "c"
      ],
      [
        "ow",
        "er"
      ],
      [
        "Ġat",
        "t"
      ],
      [
        "Ġ1",
        "0"
      ],
      [
        "ra",
        "c"
      ],
      [
        "al",
        "th"
      ],
      [
        "Ġ",
        "7"
      ],
      [
        "Ġim",
        "p"
      ],
      [
        "Ġsy",
        "stem"
      ],
      [
        "on",
        "t"
      ],
      [
        "Ġm",
        "od"
      ],
      [
        "Ġ",
        "'"
      ],
      [
        "is",
        "s"
      ],
      [
        "b",
        "egin"
      ],
      [
        "Ġf",
        "ind"
      ],
      [
        "Ġdiffere",
        "nt"
      ],
      [
        "Ġb",
        "u"
      ],
      [
        "Ġw",
        "ay"
      ],
      [
        "u",
        "es"
      ],
      [
        "..",
        ".."
      ],
      [
        "Ġp",
        "ers"
      ],
      [
        "Ġs",
        "ur"
      ],
      [
        "ot",
        "her"
      ],
      [
        "Ġd",
        "ist"
      ],
      [
        "ol",
        "low"
      ],
      [
        "s",
        "s"
      ],
      [
        "Ġdo",
        "es"
      ],
      [
        "im",
        "es"
      ],
      [
        "ie",
        "w"
      ],
      [
        "Ġg",
        "ra"
      ],
      [
        "g",
        "et"
      ],
      [
        "t",
        "en"
      ],
      [
        "a",
        "w"
      ],
      [
        "Ġs",
        "ame"
      ],
      [
        "Ġpo",
        "int"
      ],
      [
        "Ġ",
        "8"
      ],
      [
        "u",
        "ally"
      ],
      [
        "}",
        "{"
      ],
      [
        "n",
        "g"
      ],
      [
        "in",
        "es"
      ],
      [
        "id",
        "ent"
      ],
      [
        "Ġ",
        "."
      ],
      [
        "ĠI",
        "f"
      ],
      [
        "if",
        "e"
      ],
      [
        "Ġsu",
        "pp"
      ],
      [
        "ak",
        "ing"
      ],
      [
        "1",
        "2"
      ],
      [
        "il",
        "y"
      ],
      [
        ".",
        "\""
      ],
      [
        "ere",
        "d"
      ],
      [
        "o",
        "y"
      ],
      [
        "Ġde",
        "f"
      ],
      [
        "Ġyear",
        "s"
      ],
      [
        "iz",
        "e"
      ],
      [
        "Ġde",
        "velop"
      ],
      [
        "Ġr",
        "ight"
      ],
      [
        "Ġs",
        "ol"
      ],
      [
        "o",
        "ol"
      ],
      [
        "Ġ",
        "ke"
      ],
      [
        "e",
        "ver"
      ],
      [
        "Ġch",
        "ild"
      ],
      [
        "ad",
        "e"
      ],
      [
        "Ġd",
        "i"
      ],
      [
        "Ġtr",
        "ans"
      ],
      [
        "a",
        "x"
      ],
      [
        "Ġin",
        "f"
      ],
      [
        "Ġdis",
        "c"
      ],
      [
        "Ġsa",
        "id"
      ],
      [
        "Ġw",
        "ell"
      ],
      [
        "$",
        "$"
      ],
      [
        "Ġex",
        "pl"
      ],
      [
        "Ġf",
        "act"
      ],
      [
        "iv",
        "es"
      ],
      [
        "ĠW",
        "e"
      ],
      [
        "T",
        "h"
      ],
      [
        "ÂłÂł",
        "ÂłÂł"
      ],
      [
        "ar",
        "ch"
      ],
      [
        "Ġm",
        "uch"
      ],
      [
        "p",
        "s"
      ],
      [
        "e",
        "f"
      ],
      [
        "st",
        "and"
      ],
      [
        "Ġus",
        "ing"
      ],
      [
        "t",
        "he"
      ],
      [
        "Ġqu",
        "est"
      ],
      [
        "Ġp",
        "ol"
      ],
      [
        "Ġt",
        "y"
      ],
      [
        "Ġm",
        "at"
      ],
      [
        "Ġ",
        "9"
      ],
      [
        "Ġ",
        "very"
      ],
      [
        "Ġl",
        "ong"
      ],
      [
        "Ġb",
        "ack"
      ],
      [
        "Ġd",
        "et"
      ],
      [
        "Ġs",
        "ign"
      ],
      [
        "res",
        "ent"
      ],
      [
        "c",
        "y"
      ],
      [
        "ical",
        "ly"
      ],
      [
        "Ġle",
        "ar"
      ],
      [
        "âĢ",
        "¢"
      ],
      [
        "Ġa",
        "fter"
      ],
      [
        "Ġde",
        "c"
      ],
      [
        "Ġ",
        "/"
      ],
      [
        "s",
        "w"
      ],
      [
        "Ġ",
        "["
      ],
      [
        "..",
        "."
      ],
      [
        "p",
        "r"
      ],
      [
        "Ġf",
        "ollow"
      ],
      [
        "ch",
        "n"
      ],
      [
        "Ġpro",
        "ble"
      ],
      [
        "Ġres",
        "p"
      ],
      [
        "Ġex",
        "per"
      ],
      [
        "ist",
        "s"
      ],
      [
        "Ġth",
        "ose"
      ],
      [
        "ĠA",
        "l"
      ],
      [
        "Ġh",
        "im"
      ],
      [
        "e",
        "x"
      ],
      [
        "Ġs",
        "om"
      ],
      [
        "Ġgen",
        "er"
      ],
      [
        "v",
        "ing"
      ],
      [
        "w",
        "ard"
      ],
      [
        "ĠF",
        "or"
      ],
      [
        "Ġw",
        "ant"
      ],
      [
        "Ġres",
        "ult"
      ],
      [
        "ur",
        "al"
      ],
      [
        "Ġc",
        "ur"
      ],
      [
        "t",
        "y"
      ],
      [
        "en",
        "g"
      ],
      [
        "Ġd",
        "id"
      ],
      [
        "ĠH",
        "ow"
      ],
      [
        "Ġbe",
        "ing"
      ],
      [
        "Ġh",
        "igh"
      ],
      [
        "Ġim",
        "port"
      ],
      [
        "2",
        "0"
      ],
      [
        "Ġe",
        "ar"
      ],
      [
        "i",
        "ence"
      ],
      [
        "ic",
        "es"
      ],
      [
        "ĠP",
        "ro"
      ],
      [
        "it",
        "ed"
      ],
      [
        "ĠA",
        "n"
      ],
      [
        "g",
        "an"
      ],
      [
        "Ġre",
        "p"
      ],
      [
        "oc",
        "i"
      ],
      [
        "Ġc",
        "ount"
      ],
      [
        "Ġwor",
        "ld"
      ],
      [
        "n",
        "ess"
      ],
      [
        "Ġre",
        "f"
      ],
      [
        "in",
        "s"
      ],
      [
        "Ġ",
        "ent"
      ],
      [
        "Ġb",
        "oth"
      ],
      [
        "at",
        "ure"
      ],
      [
        "ut",
        "e"
      ],
      [
        "Ġd",
        "ata"
      ],
      [
        "Ġn",
        "ow"
      ],
      [
        "*",
        "*"
      ],
      [
        "b",
        "ers"
      ],
      [
        "Ġcom",
        "ple"
      ],
      [
        "t",
        "s"
      ],
      [
        "Ġin",
        "s"
      ],
      [
        "mer",
        "ic"
      ],
      [
        "00",
        "0"
      ],
      [
        "is",
        "m"
      ],
      [
        "ag",
        "es"
      ],
      [
        "Ġm",
        "in"
      ],
      [
        "form",
        "ation"
      ],
      [
        "Ġwh",
        "ile"
      ],
      [
        "Ġd",
        "own"
      ],
      [
        "Ġin",
        "cre"
      ],
      [
        "l",
        "ed"
      ],
      [
        "1",
        "1"
      ],
      [
        "Ġd",
        "on"
      ],
      [
        "Ġpl",
        "ay"
      ],
      [
        "t",
        "le"
      ],
      [
        "Ġc",
        "ar"
      ],
      [
        "Ġ",
        "i"
      ],
      [
        "Ġ",
        "end"
      ],
      [
        "n",
        "ce"
      ],
      [
        "c",
        "ul"
      ],
      [
        "Ġse",
        "c"
      ],
      [
        "Ġw",
        "ater"
      ],
      [
        "Ġto",
        "o"
      ],
      [
        "g",
        "y"
      ],
      [
        "i",
        "x"
      ],
      [
        "##",
        "#"
      ],
      [
        "ch",
        "ool"
      ],
      [
        "Ġ",
        "ed"
      ],
      [
        "v",
        "ent"
      ],
      [
        "Ġc",
        "ent"
      ],
      [
        "Ġgo",
        "od"
      ],
      [
        "i",
        "o"
      ],
      [
        "Ġbe",
        "fore"
      ],
      [
        "Ġc",
        "re"
      ],
      [
        "Ġex",
        "t"
      ],
      [
        "Ġl",
        "oc"
      ],
      [
        "Ġre",
        "ad"
      ],
      [
        "in",
        "ce"
      ],
      [
        "olog",
        "y"
      ],
      [
        "Ġf",
        "ound"
      ],
      [
        "v",
        "ed"
      ],
      [
        "Ġpart",
        "ic"
      ],
      [
        "iv",
        "en"
      ],
      [
        "iv",
        "id"
      ],
      [
        "ent",
        "ial"
      ],
      [
        "Ġsh",
        "ow"
      ],
      [
        "Ġre",
        "qu"
      ],
      [
        "Ġl",
        "ar"
      ],
      [
        "Ġm",
        "ed"
      ],
      [
        "Ġst",
        "art"
      ],
      [
        "u",
        "c"
      ],
      [
        "s",
        "h"
      ],
      [
        "Ġpro",
        "g"
      ],
      [
        "ĠC",
        "om"
      ],
      [
        "Ġch",
        "ar"
      ],
      [
        "Ġc",
        "or"
      ],
      [
        "c",
        "ent"
      ],
      [
        "f",
        "rac"
      ],
      [
        "c",
        "er"
      ],
      [
        "ĠA",
        "nd"
      ],
      [
        "Ġg",
        "reat"
      ],
      [
        "in",
        "ed"
      ],
      [
        "Ġag",
        "ain"
      ],
      [
        "in",
        "al"
      ],
      [
        "sel",
        "f"
      ],
      [
        "Ġp",
        "at"
      ],
      [
        "Ġo",
        "wn"
      ],
      [
        "ĠB",
        "ut"
      ],
      [
        "a",
        "ve"
      ],
      [
        "d",
        "s"
      ],
      [
        "u",
        "g"
      ],
      [
        "ect",
        "ion"
      ],
      [
        "u",
        "p"
      ],
      [
        "od",
        "y"
      ],
      [
        "Ġeff",
        "ect"
      ],
      [
        "Ġexam",
        "ple"
      ],
      [
        "Ġpers",
        "on"
      ],
      [
        "c",
        "ial"
      ],
      [
        "Ġh",
        "um"
      ],
      [
        "i",
        "el"
      ],
      [
        "ĠY",
        "ou"
      ],
      [
        "ĠA",
        "s"
      ],
      [
        "Ġl",
        "it"
      ],
      [
        "ĠA",
        "meric"
      ],
      [
        "at",
        "her"
      ],
      [
        "Ġ1",
        "8"
      ],
      [
        "Ġth",
        "ough"
      ],
      [
        "Ġm",
        "on"
      ],
      [
        "ĠThe",
        "y"
      ],
      [
        "iz",
        "ed"
      ],
      [
        "Ġt",
        "ake"
      ],
      [
        "Ġcomm",
        "un"
      ],
      [
        "he",
        "m"
      ],
      [
        "v",
        "en"
      ],
      [
        "ĠR",
        "e"
      ],
      [
        "Ġpro",
        "cess"
      ],
      [
        "Ġl",
        "ist"
      ],
      [
        "Ġapp",
        "ro"
      ],
      [
        "re",
        "ad"
      ],
      [
        "Ġd",
        "uring"
      ],
      [
        "i",
        "qu"
      ],
      [
        "Ġre",
        "al"
      ],
      [
        "Ġpos",
        "s"
      ],
      [
        "Ġf",
        "am"
      ],
      [
        "Ġte",
        "chn"
      ],
      [
        "Ġs",
        "k"
      ],
      [
        "Ġt",
        "est"
      ],
      [
        "Ġunder",
        "stand"
      ],
      [
        "Ġhe",
        "alth"
      ],
      [
        "Ġth",
        "ink"
      ],
      [
        "Ġar",
        "t"
      ],
      [
        "ak",
        "es"
      ],
      [
        "Ġg",
        "rou"
      ],
      [
        "v",
        "es"
      ],
      [
        "d",
        "er"
      ],
      [
        "Ġde",
        "p"
      ],
      [
        "Ġs",
        "er"
      ],
      [
        "Ġ",
        "&"
      ],
      [
        "ar",
        "m"
      ],
      [
        "as",
        "es"
      ],
      [
        "c",
        "on"
      ],
      [
        "Ġm",
        "ade"
      ],
      [
        "ant",
        "s"
      ],
      [
        "oc",
        "k"
      ],
      [
        "re",
        "nt"
      ],
      [
        "Ġre",
        "se"
      ],
      [
        "ĠE",
        "x"
      ],
      [
        "1",
        "3"
      ],
      [
        "ction",
        "s"
      ],
      [
        "Ġg",
        "u"
      ],
      [
        "Ġm",
        "ight"
      ],
      [
        "Ġa",
        "round"
      ],
      [
        "Ġl",
        "ife"
      ],
      [
        "Ġsm",
        "all"
      ],
      [
        "or",
        "k"
      ],
      [
        "Ġl",
        "ess"
      ],
      [
        "u",
        "nd"
      ],
      [
        "i",
        "er"
      ],
      [
        "Ġcon",
        "st"
      ],
      [
        "Ġle",
        "vel"
      ],
      [
        "Ġha",
        "nd"
      ],
      [
        "us",
        "s"
      ],
      [
        "Ġm",
        "ust"
      ],
      [
        "Ġa",
        "ut"
      ],
      [
        "Ġ",
        "Q"
      ],
      [
        "an",
        "y"
      ],
      [
        "a",
        "ir"
      ],
      [
        "st",
        "r"
      ],
      [
        "Ġan",
        "sw"
      ],
      [
        "Ġc",
        "al"
      ],
      [
        "Ġin",
        "formation"
      ],
      [
        "Ġcall",
        "ed"
      ],
      [
        "t",
        "urn"
      ],
      [
        "Ġstud",
        "ents"
      ],
      [
        "ub",
        "lic"
      ],
      [
        ",",
        "\""
      ],
      [
        "Ġst",
        "ate"
      ],
      [
        "Ġc",
        "a"
      ],
      [
        "/",
        "/"
      ],
      [
        "Ġle",
        "ad"
      ],
      [
        "al",
        "e"
      ],
      [
        "Ġd",
        "ire"
      ],
      [
        "Ġh",
        "ist"
      ],
      [
        "t",
        "ed"
      ],
      [
        "Ġl",
        "ine"
      ],
      [
        "et",
        "y"
      ],
      [
        "Ġcl",
        "ass"
      ],
      [
        "Ġs",
        "ay"
      ],
      [
        "Ġcon",
        "f"
      ],
      [
        "Ġth",
        "ree"
      ],
      [
        "Ġle",
        "t"
      ],
      [
        "{",
        "\\"
      ],
      [
        "od",
        "e"
      ],
      [
        "Ġo",
        "p"
      ],
      [
        "eth",
        "ing"
      ],
      [
        "Ġp",
        "ar"
      ],
      [
        "Ġ",
        "`"
      ],
      [
        "ul",
        "l"
      ],
      [
        "Ġd",
        "ay"
      ],
      [
        "at",
        "or"
      ],
      [
        "Ġvar",
        "i"
      ],
      [
        "id",
        "er"
      ],
      [
        "1",
        "9"
      ],
      [
        "Ġg",
        "l"
      ],
      [
        "Ġp",
        "op"
      ],
      [
        "Ġp",
        "ower"
      ],
      [
        "ver",
        "n"
      ],
      [
        "w",
        "ay"
      ],
      [
        "id",
        "es"
      ],
      [
        "i",
        "vers"
      ],
      [
        "Ġm",
        "em"
      ],
      [
        "Ġ1",
        "2"
      ],
      [
        "Ġst",
        "ill"
      ],
      [
        "d",
        "ay"
      ],
      [
        "Ġbe",
        "l"
      ],
      [
        "Ġb",
        "r"
      ],
      [
        "Ġt",
        "ri"
      ],
      [
        "is",
        "ion"
      ],
      [
        "Th",
        "is"
      ],
      [
        "n",
        "er"
      ],
      [
        "ro",
        "ss"
      ],
      [
        "as",
        "h"
      ],
      [
        "i",
        "en"
      ],
      [
        "ion",
        "al"
      ],
      [
        "l",
        "and"
      ],
      [
        "ter",
        "s"
      ],
      [
        "Ġa",
        "v"
      ],
      [
        "Ġsom",
        "ething"
      ],
      [
        "Ġs",
        "erv"
      ],
      [
        "it",
        "ive"
      ],
      [
        "ĠA",
        "r"
      ],
      [
        "Ġs",
        "l"
      ],
      [
        "Ġcont",
        "in"
      ],
      [
        "com",
        "ment"
      ],
      [
        "et",
        "s"
      ],
      [
        "ir",
        "on"
      ],
      [
        "Ġval",
        "ue"
      ],
      [
        "Ġan",
        "other"
      ],
      [
        "Ġhe",
        "re"
      ],
      [
        "ere",
        "st"
      ],
      [
        "ĠW",
        "h"
      ],
      [
        "Ġimport",
        "ant"
      ],
      [
        "a",
        "h"
      ],
      [
        "d",
        "ition"
      ],
      [
        "Ġs",
        "chool"
      ],
      [
        "o",
        "x"
      ],
      [
        "p",
        "ut"
      ],
      [
        "en",
        "se"
      ],
      [
        "ĠW",
        "hat"
      ],
      [
        "im",
        "ate"
      ],
      [
        "ab",
        "ility"
      ],
      [
        "Ġpl",
        "an"
      ],
      [
        "Ġth",
        "ings"
      ],
      [
        "âĢ",
        "Ķ"
      ],
      [
        "Ġall",
        "ow"
      ],
      [
        "h",
        "ip"
      ],
      [
        "Ġ",
        "est"
      ],
      [
        "Ġg",
        "iven"
      ],
      [
        "Ġof",
        "ten"
      ],
      [
        "Ġg",
        "row"
      ],
      [
        "are",
        "d"
      ],
      [
        "Ġm",
        "ult"
      ],
      [
        "ect",
        "ed"
      ],
      [
        "Ġm",
        "ain"
      ],
      [
        "Ġme",
        "an"
      ],
      [
        "w",
        "ays"
      ],
      [
        "ot",
        "e"
      ],
      [
        "Ġst",
        "and"
      ],
      [
        "__",
        "__"
      ],
      [
        "Ġchild",
        "ren"
      ],
      [
        "ain",
        "s"
      ],
      [
        "Ġwith",
        "in"
      ],
      [
        "t",
        "on"
      ],
      [
        "Ġl",
        "ook"
      ],
      [
        "t",
        "o"
      ],
      [
        "if",
        "y"
      ],
      [
        "c",
        "i"
      ],
      [
        "}",
        "$"
      ],
      [
        "an",
        "k"
      ],
      [
        "Ġc",
        "are"
      ],
      [
        "ĠS",
        "o"
      ],
      [
        "d",
        "e"
      ],
      [
        "ir",
        "c"
      ],
      [
        "Ġ$",
        "$"
      ],
      [
        "ar",
        "s"
      ],
      [
        "ĠThe",
        "re"
      ],
      [
        "Ġc",
        "le"
      ],
      [
        "f",
        "or"
      ],
      [
        "Ġc",
        "our"
      ],
      [
        "al",
        "ity"
      ],
      [
        "as",
        "on"
      ],
      [
        "Ġdes",
        "ign"
      ],
      [
        "l",
        "ess"
      ],
      [
        "p",
        "ro"
      ],
      [
        "om",
        "en"
      ],
      [
        "Ġe",
        "le"
      ],
      [
        "it",
        "ions"
      ],
      [
        "Ċ",
        "Ġ"
      ],
      [
        "Ġha",
        "pp"
      ],
      [
        "Ġad",
        "v"
      ],
      [
        "ro",
        "l"
      ],
      [
        "Ġp",
        "ract"
      ],
      [
        "ĠN",
        "ew"
      ],
      [
        "Ġf",
        "ood"
      ],
      [
        "ire",
        "d"
      ],
      [
        "g",
        "g"
      ],
      [
        "5",
        "0"
      ],
      [
        "r",
        "al"
      ],
      [
        "ra",
        "ph"
      ],
      [
        "Ġme",
        "as"
      ],
      [
        "Ġ",
        "ide"
      ],
      [
        "r",
        "ight"
      ],
      [
        "'",
        "re"
      ],
      [
        "b",
        "e"
      ],
      [
        "ĠS",
        "e"
      ],
      [
        "ĠS",
        "h"
      ],
      [
        "e",
        "ad"
      ],
      [
        "ert",
        "ain"
      ],
      [
        "Ġp",
        "ass"
      ],
      [
        "Ġbet",
        "ter"
      ],
      [
        "ĠC",
        "on"
      ],
      [
        "iz",
        "ation"
      ],
      [
        "Ġo",
        "cc"
      ],
      [
        "is",
        "hed"
      ],
      [
        "el",
        "s"
      ],
      [
        "Ġstud",
        "y"
      ],
      [
        "Ġquest",
        "ion"
      ],
      [
        "Ġe",
        "as"
      ],
      [
        "Ġbe",
        "h"
      ],
      [
        "Ġch",
        "ange"
      ],
      [
        "Ġcomm",
        "on"
      ],
      [
        "Ġwith",
        "out"
      ],
      [
        "os",
        "s"
      ],
      [
        "eth",
        "od"
      ],
      [
        "o",
        "h"
      ],
      [
        "Ġsec",
        "ond"
      ],
      [
        "v",
        "iron"
      ],
      [
        "he",
        "re"
      ],
      [
        "it",
        "al"
      ],
      [
        "er",
        "ing"
      ],
      [
        "Ġe",
        "l"
      ],
      [
        "Ġc",
        "ell"
      ],
      [
        "Ġv",
        "is"
      ],
      [
        "Ġpl",
        "ace"
      ],
      [
        "in",
        "ing"
      ],
      [
        "Ġ",
        ":"
      ],
      [
        "el",
        "f"
      ],
      [
        "Ġc",
        "he"
      ],
      [
        "Ġint",
        "erest"
      ],
      [
        "Ġin",
        "c"
      ],
      [
        "Ġsupp",
        "ort"
      ],
      [
        "Ġen",
        "g"
      ],
      [
        "at",
        "ic"
      ],
      [
        "Ġlear",
        "n"
      ],
      [
        "--------",
        "--------"
      ],
      [
        "ivid",
        "ual"
      ],
      [
        "Ġl",
        "ast"
      ],
      [
        "g",
        "er"
      ],
      [
        "Ġm",
        "et"
      ],
      [
        "Ġw",
        "rit"
      ],
      [
        "Ġr",
        "un"
      ],
      [
        "v",
        "iew"
      ],
      [
        "a",
        "pp"
      ],
      [
        "Ġbu",
        "ild"
      ],
      [
        "Ġproble",
        "m"
      ],
      [
        "Ġch",
        "ang"
      ],
      [
        "pl",
        "es"
      ],
      [
        "Ġgo",
        "ing"
      ],
      [
        "S",
        "t"
      ],
      [
        "Ġhum",
        "an"
      ],
      [
        "Ġpro",
        "t"
      ],
      [
        "ou",
        "n"
      ],
      [
        "Ġ",
        "<"
      ],
      [
        "I",
        "t"
      ],
      [
        "l",
        "ine"
      ],
      [
        "Ġt",
        "ry"
      ],
      [
        "il",
        "ar"
      ],
      [
        "ĠA",
        "d"
      ],
      [
        "Ġansw",
        "er"
      ],
      [
        "s",
        "c"
      ],
      [
        "er",
        "gy"
      ],
      [
        "os",
        "ed"
      ],
      [
        "ĠC",
        "l"
      ],
      [
        "am",
        "es"
      ],
      [
        "Ġ",
        "X"
      ],
      [
        "Ġ",
        "ident"
      ],
      [
        "p",
        "ect"
      ],
      [
        "Ġb",
        "ody"
      ],
      [
        "Ġor",
        "gan"
      ],
      [
        "Ġpro",
        "f"
      ],
      [
        "pt",
        "ion"
      ],
      [
        "Ġty",
        "p"
      ],
      [
        "Ġe",
        "lect"
      ],
      [
        "Ġt",
        "urn"
      ],
      [
        "Ġf",
        "ew"
      ],
      [
        "m",
        "on"
      ],
      [
        "i",
        "or"
      ],
      [
        "Ġc",
        "ase"
      ],
      [
        "ĠD",
        "e"
      ],
      [
        "iel",
        "d"
      ],
      [
        "iv",
        "ing"
      ],
      [
        "ou",
        "se"
      ],
      [
        "id",
        "s"
      ],
      [
        "ĠThe",
        "se"
      ],
      [
        "Ġact",
        "iv"
      ],
      [
        "Ġse",
        "em"
      ],
      [
        "ri",
        "end"
      ],
      [
        "ot",
        "s"
      ],
      [
        ".",
        ","
      ],
      [
        "Ġre",
        "du"
      ],
      [
        "Ġprodu",
        "ct"
      ],
      [
        "p",
        "ar"
      ],
      [
        "Ġind",
        "ividual"
      ],
      [
        "Ġfollow",
        "ing"
      ],
      [
        "Ġint",
        "eg"
      ],
      [
        "in",
        "ation"
      ],
      [
        "Ġob",
        "ject"
      ],
      [
        "Ġs",
        "it"
      ],
      [
        "m",
        "an"
      ],
      [
        "Ġfe",
        "el"
      ],
      [
        "ĠI",
        "s"
      ],
      [
        "Ġinv",
        "ol"
      ],
      [
        "ct",
        "or"
      ],
      [
        "Ġr",
        "is"
      ],
      [
        "Ġ",
        "ve"
      ],
      [
        "Ġo",
        "pp"
      ],
      [
        "Ġ",
        "{"
      ],
      [
        "Ġ",
        "z"
      ],
      [
        "a",
        "j"
      ],
      [
        "Ġt",
        "er"
      ],
      [
        "Ġl",
        "ight"
      ],
      [
        "ul",
        "ation"
      ],
      [
        "Ġa",
        "ff"
      ],
      [
        "Ġre",
        "ally"
      ],
      [
        "t",
        "t"
      ],
      [
        "a",
        "z"
      ],
      [
        "1",
        "4"
      ],
      [
        "Ġt",
        "reat"
      ],
      [
        "ag",
        "n"
      ],
      [
        "Ġs",
        "ince"
      ],
      [
        "Ġlar",
        "ge"
      ],
      [
        "i",
        "k"
      ],
      [
        "Ġgo",
        "vern"
      ],
      [
        "ĠI",
        "nd"
      ],
      [
        "Ġm",
        "ov"
      ],
      [
        "th",
        "ing"
      ],
      [
        "Ġf",
        "in"
      ],
      [
        "Ġcur",
        "rent"
      ],
      [
        "Ġto",
        "p"
      ],
      [
        "Ġp",
        "res"
      ],
      [
        "Ġop",
        "en"
      ],
      [
        "1",
        "5"
      ],
      [
        "c",
        "ing"
      ],
      [
        "Ġme",
        "ans"
      ],
      [
        "Ġ",
        "*"
      ],
      [
        "or",
        "ies"
      ],
      [
        "Ġare",
        "a"
      ],
      [
        "o",
        "f"
      ],
      [
        "act",
        "er"
      ],
      [
        "er",
        "n"
      ],
      [
        "Ġp",
        "ot"
      ],
      [
        "Ġo",
        "per"
      ],
      [
        "Ġbel",
        "ie"
      ],
      [
        "Ġis",
        "s"
      ],
      [
        "Ġm",
        "ar"
      ],
      [
        "Ġal",
        "ways"
      ],
      [
        "Ġwh",
        "y"
      ],
      [
        "oc",
        "ial"
      ],
      [
        "g",
        "en"
      ],
      [
        "Ġd",
        "el"
      ],
      [
        "Ġs",
        "um"
      ],
      [
        "Ġknow",
        "n"
      ],
      [
        "Ġposs",
        "ible"
      ],
      [
        "r",
        "on"
      ],
      [
        "Ġpro",
        "b"
      ],
      [
        "ĠS",
        "c"
      ],
      [
        "ent",
        "ly"
      ],
      [
        "viron",
        "ment"
      ],
      [
        "Ġinclud",
        "ing"
      ],
      [
        "Ġke",
        "ep"
      ],
      [
        "Ġm",
        "ethod"
      ],
      [
        "am",
        "p"
      ],
      [
        "eng",
        "th"
      ],
      [
        "Ġ",
        "Âł"
      ],
      [
        "Ġnum",
        "bers"
      ],
      [
        "Ġsy",
        "m"
      ],
      [
        "o",
        "ver"
      ],
      [
        "Ġ1",
        "5"
      ],
      [
        "it",
        "her"
      ],
      [
        "ivers",
        "ity"
      ],
      [
        "ol",
        "ution"
      ],
      [
        "ra",
        "y"
      ],
      [
        "1",
        "8"
      ],
      [
        "b",
        "s"
      ],
      [
        "t",
        "ain"
      ],
      [
        "ress",
        "ion"
      ],
      [
        "Ġ",
        "â"
      ],
      [
        "Ġen",
        "ergy"
      ],
      [
        "Ġb",
        "est"
      ],
      [
        "r",
        "ation"
      ],
      [
        "her",
        "s"
      ],
      [
        ".",
        "âĢĿ"
      ],
      [
        "Ġb",
        "as"
      ],
      [
        "Ġn",
        "ame"
      ],
      [
        "Ġcal",
        "cul"
      ],
      [
        "v",
        "al"
      ],
      [
        "Ġl",
        "aw"
      ],
      [
        "Ġt",
        "imes"
      ],
      [
        "Ġc",
        "ap"
      ],
      [
        "Ġre",
        "port"
      ],
      [
        "Ġc",
        "ult"
      ],
      [
        "l",
        "ing"
      ],
      [
        "ater",
        "ial"
      ],
      [
        "1",
        "6"
      ],
      [
        "ur",
        "y"
      ],
      [
        "Ġcom",
        "e"
      ],
      [
        "ard",
        "s"
      ],
      [
        "ĠL",
        "e"
      ],
      [
        "are",
        "nt"
      ],
      [
        "ri",
        "es"
      ],
      [
        "Ġp",
        "ur"
      ],
      [
        "Ġd",
        "ra"
      ],
      [
        "Ġo",
        "ld"
      ],
      [
        "Ġhe",
        "ad"
      ],
      [
        "``",
        "``"
      ],
      [
        "Ġp",
        "ost"
      ],
      [
        "em",
        "ber"
      ],
      [
        "Ġs",
        "elf"
      ],
      [
        "Ġm",
        "ot"
      ],
      [
        "our",
        "ces"
      ],
      [
        "in",
        "ess"
      ],
      [
        "or",
        "n"
      ],
      [
        "re",
        "en"
      ],
      [
        "Ġpro",
        "ject"
      ],
      [
        "Ġrese",
        "arch"
      ],
      [
        "Ġ19",
        "9"
      ],
      [
        "Ġb",
        "re"
      ],
      [
        "Ġan",
        "al"
      ],
      [
        "Ġb",
        "ased"
      ],
      [
        "cc",
        "ess"
      ],
      [
        "ĠT",
        "o"
      ],
      [
        "Ġm",
        "ove"
      ],
      [
        "Ġl",
        "and"
      ],
      [
        "ent",
        "ion"
      ],
      [
        "Ġcon",
        "n"
      ],
      [
        "ĠW",
        "hen"
      ],
      [
        "Ġper",
        "form"
      ],
      [
        "u",
        "ro"
      ],
      [
        "Ġs",
        "ays"
      ],
      [
        "Ġh",
        "ome"
      ],
      [
        "Ġdes",
        "c"
      ],
      [
        "Ġgrou",
        "p"
      ],
      [
        "I",
        "f"
      ],
      [
        "ang",
        "u"
      ],
      [
        "Ġlit",
        "tle"
      ],
      [
        "ab",
        "ly"
      ],
      [
        "Ġu",
        "nt"
      ],
      [
        "er",
        "al"
      ],
      [
        "ro",
        "du"
      ],
      [
        "op",
        "e"
      ],
      [
        "i",
        "od"
      ],
      [
        "Ġw",
        "r"
      ],
      [
        "Ġv",
        "ol"
      ],
      [
        "Ġm",
        "il"
      ],
      [
        "Ġpro",
        "per"
      ],
      [
        "Ġh",
        "ard"
      ],
      [
        "Ġp",
        "ublic"
      ],
      [
        "Ġor",
        "der"
      ],
      [
        "Ġagain",
        "st"
      ],
      [
        "g",
        "in"
      ],
      [
        "Ġp",
        "resent"
      ],
      [
        "W",
        "e"
      ],
      [
        "Ġb",
        "o"
      ],
      [
        "....",
        "...."
      ],
      [
        "if",
        "ied"
      ],
      [
        "Ġother",
        "s"
      ],
      [
        "ĠTh",
        "at"
      ],
      [
        "Ġp",
        "rom"
      ],
      [
        "Ġm",
        "ark"
      ],
      [
        "Ġp",
        "ut"
      ],
      [
        "Ġt",
        "em"
      ],
      [
        "Ġpartic",
        "ular"
      ],
      [
        "Ġor",
        "ig"
      ],
      [
        "Ġm",
        "ill"
      ],
      [
        "al",
        "k"
      ],
      [
        "Ġb",
        "ra"
      ],
      [
        "pl",
        "ay"
      ],
      [
        "e",
        "k"
      ],
      [
        "Ġim",
        "m"
      ],
      [
        "Ġsign",
        "ific"
      ],
      [
        "Ġne",
        "xt"
      ],
      [
        "Ġ1",
        "6"
      ],
      [
        "Ġde",
        "v"
      ],
      [
        "Ġper",
        "cent"
      ],
      [
        "at",
        "s"
      ],
      [
        "i",
        "ver"
      ],
      [
        "ĠB",
        "y"
      ],
      [
        "i",
        "ents"
      ],
      [
        "an",
        "ces"
      ],
      [
        "Ġph",
        "ys"
      ],
      [
        "w",
        "are"
      ],
      [
        "Ġc",
        "reat"
      ],
      [
        "our",
        "ce"
      ],
      [
        "con",
        "om"
      ],
      [
        "get",
        "her"
      ],
      [
        "y",
        "le"
      ],
      [
        "Ġto",
        "gether"
      ],
      [
        "Ġc",
        "ost"
      ],
      [
        "Ġn",
        "on"
      ],
      [
        "b",
        "y"
      ],
      [
        "Ġh",
        "y"
      ],
      [
        "Ġse",
        "ver"
      ],
      [
        "Ġs",
        "ide"
      ],
      [
        "Ġ",
        "--"
      ],
      [
        "l",
        "ish"
      ],
      [
        "Ġc",
        "r"
      ],
      [
        "ĠHow",
        "ever"
      ],
      [
        "ro",
        "p"
      ],
      [
        "}",
        "\\"
      ],
      [
        "om",
        "s"
      ],
      [
        "Ġle",
        "ft"
      ],
      [
        "id",
        "ed"
      ],
      [
        "^",
        "{"
      ],
      [
        "Ġm",
        "us"
      ],
      [
        "i",
        "ans"
      ],
      [
        "Ġc",
        "ertain"
      ],
      [
        "n",
        "ot"
      ],
      [
        "ĠP",
        "l"
      ],
      [
        "Ġf",
        "riend"
      ],
      [
        "u",
        "ct"
      ],
      [
        "Ġne",
        "ver"
      ],
      [
        "ab",
        "les"
      ],
      [
        "Ġre",
        "st"
      ],
      [
        "Ġl",
        "im"
      ],
      [
        "'",
        "m"
      ],
      [
        "i",
        "um"
      ],
      [
        "Ġprog",
        "ram"
      ],
      [
        "Ġbec",
        "ome"
      ],
      [
        "ĠAmeric",
        "an"
      ],
      [
        "m",
        "e"
      ],
      [
        "Ġimp",
        "ro"
      ],
      [
        "og",
        "raph"
      ],
      [
        "Ġed",
        "uc"
      ],
      [
        "ĠâĢ",
        "¢"
      ],
      [
        "Ġcons",
        "ider"
      ],
      [
        "ord",
        "ing"
      ],
      [
        "Ġ",
        "Z"
      ],
      [
        "Ġp",
        "ress"
      ],
      [
        "p",
        "or"
      ],
      [
        "ĠP",
        "h"
      ],
      [
        "Ġf",
        "our"
      ],
      [
        "Ġty",
        "pe"
      ],
      [
        "ĠE",
        "ng"
      ],
      [
        "an",
        "e"
      ],
      [
        "ou",
        "th"
      ],
      [
        "ill",
        "s"
      ],
      [
        "Ġb",
        "us"
      ],
      [
        "Ġne",
        "ar"
      ],
      [
        "one",
        "y"
      ],
      [
        "im",
        "al"
      ],
      [
        "am",
        "ple"
      ],
      [
        "Ġ",
        "es"
      ],
      [
        "_",
        "{"
      ],
      [
        "ur",
        "ther"
      ],
      [
        "Ġsever",
        "al"
      ],
      [
        "Ġvar",
        "ious"
      ],
      [
        "Ġs",
        "ing"
      ],
      [
        "Ġm",
        "aterial"
      ],
      [
        "a",
        "pe"
      ],
      [
        "Ġp",
        "ri"
      ],
      [
        "Ġf",
        "ar"
      ],
      [
        "Ġle",
        "g"
      ],
      [
        "Ġv",
        "iew"
      ],
      [
        "Ġg",
        "ame"
      ],
      [
        "at",
        "ch"
      ],
      [
        "A",
        "s"
      ],
      [
        "ĠB",
        "e"
      ],
      [
        "v",
        "ious"
      ],
      [
        "Ġab",
        "ove"
      ],
      [
        "ic",
        "le"
      ],
      [
        "Ġm",
        "aking"
      ],
      [
        "Ġf",
        "il"
      ],
      [
        "at",
        "ural"
      ],
      [
        "Ġb",
        "en"
      ],
      [
        "Ġ1",
        "7"
      ],
      [
        "Ġfam",
        "ily"
      ],
      [
        "Ġca",
        "us"
      ],
      [
        "ent",
        "al"
      ],
      [
        "Ġdet",
        "erm"
      ],
      [
        "Ġ1",
        "4"
      ],
      [
        "Ġmult",
        "i"
      ],
      [
        "Ġrep",
        "resent"
      ],
      [
        "Ġcre",
        "ate"
      ],
      [
        "ic",
        "ation"
      ],
      [
        "iv",
        "ed"
      ],
      [
        "ĠR",
        "es"
      ],
      [
        "oc",
        "us"
      ],
      [
        "pl",
        "oy"
      ],
      [
        "Ġs",
        "qu"
      ],
      [
        "Ġunt",
        "il"
      ],
      [
        "Ġw",
        "omen"
      ],
      [
        "Ġdire",
        "ct"
      ],
      [
        "id",
        "ence"
      ],
      [
        "Ġproble",
        "ms"
      ],
      [
        "or",
        "ing"
      ],
      [
        "ut",
        "ions"
      ],
      [
        "Ġam",
        "ong"
      ],
      [
        "iqu",
        "e"
      ],
      [
        "Ġre",
        "turn"
      ],
      [
        "Ġen",
        "vironment"
      ],
      [
        "o",
        "int"
      ],
      [
        "p",
        "os"
      ],
      [
        "Ġinclud",
        "e"
      ],
      [
        "Ġhist",
        "ory"
      ],
      [
        "Ġdis",
        "e"
      ],
      [
        "Ġra",
        "d"
      ],
      [
        "W",
        "hat"
      ],
      [
        "Ġbl",
        "ood"
      ],
      [
        "Ġe",
        "t"
      ],
      [
        "1",
        "7"
      ],
      [
        "id",
        "d"
      ],
      [
        "om",
        "et"
      ],
      [
        "Ġw",
        "ar"
      ],
      [
        "Ġg",
        "ive"
      ],
      [
        "ac",
        "es"
      ],
      [
        "og",
        "n"
      ],
      [
        "Ġl",
        "ow"
      ],
      [
        "ĠO",
        "r"
      ],
      [
        "m",
        "in"
      ],
      [
        "ĠĠĠĠ",
        "Ġ"
      ],
      [
        "g",
        "ed"
      ],
      [
        "um",
        "e"
      ],
      [
        "Ġl",
        "oo"
      ],
      [
        "Ġf",
        "ree"
      ],
      [
        "Ġab",
        "le"
      ],
      [
        "olog",
        "ical"
      ],
      [
        "Ġc",
        "irc"
      ],
      [
        "Ġ1",
        "3"
      ],
      [
        "ate",
        "g"
      ],
      [
        "e",
        "xt"
      ],
      [
        "Ġst",
        "ep"
      ],
      [
        "Ġd",
        "ri"
      ],
      [
        "Ġb",
        "ig"
      ],
      [
        "Ġam",
        "ount"
      ],
      [
        "Ġal",
        "ong"
      ],
      [
        "ĠC",
        "an"
      ],
      [
        "aj",
        "or"
      ],
      [
        "Ġas",
        "k"
      ],
      [
        "ĠW",
        "or"
      ],
      [
        "Ġpot",
        "ential"
      ],
      [
        "o",
        "id"
      ],
      [
        "r",
        "ist"
      ],
      [
        "Ġcont",
        "rol"
      ],
      [
        "Ġcomp",
        "ut"
      ],
      [
        "Ġh",
        "our"
      ],
      [
        "Ġs",
        "ocial"
      ],
      [
        "Ġte",
        "xt"
      ],
      [
        "iss",
        "ion"
      ],
      [
        "Ġl",
        "angu"
      ],
      [
        "Ġval",
        "ues"
      ],
      [
        "t",
        "al"
      ],
      [
        "Ġear",
        "ly"
      ],
      [
        "Ġwor",
        "ks"
      ],
      [
        "Ġsa",
        "f"
      ],
      [
        "A",
        "T"
      ],
      [
        "o",
        "le"
      ],
      [
        "A",
        "n"
      ],
      [
        "l",
        "u"
      ],
      [
        "Ġmon",
        "th"
      ],
      [
        "Ġen",
        "ough"
      ],
      [
        "o",
        "ot"
      ],
      [
        "Ġcour",
        "se"
      ],
      [
        "Ġd",
        "ays"
      ],
      [
        "ĠA",
        "t"
      ],
      [
        "Ġf",
        "ore"
      ],
      [
        "um",
        "ent"
      ],
      [
        "end",
        "ing"
      ],
      [
        "ff",
        "ic"
      ],
      [
        "Ġf",
        "re"
      ],
      [
        "Ġdisc",
        "uss"
      ],
      [
        "ap",
        "s"
      ],
      [
        "Ġe",
        "conom"
      ],
      [
        "Ġa",
        "way"
      ],
      [
        "ĠS",
        "p"
      ],
      [
        "Ġl",
        "ength"
      ],
      [
        "o",
        "ad"
      ],
      [
        "Ġth",
        "ing"
      ],
      [
        "Ġb",
        "ro"
      ],
      [
        "us",
        "ion"
      ],
      [
        "Ġsim",
        "ilar"
      ],
      [
        "ru",
        "ct"
      ],
      [
        "Ġlear",
        "ning"
      ],
      [
        "Ġgovern",
        "ment"
      ],
      [
        "Ġk",
        "ind"
      ],
      [
        "Ġquest",
        "ions"
      ],
      [
        "Ġav",
        "ail"
      ],
      [
        "Ġmeas",
        "ure"
      ],
      [
        "b",
        "r"
      ],
      [
        "Ġsp",
        "ace"
      ],
      [
        "Ġ",
        "er"
      ],
      [
        "w",
        "w"
      ],
      [
        "ra",
        "p"
      ],
      [
        "as",
        "ter"
      ],
      [
        "Ġ3",
        "0"
      ],
      [
        "ĠUn",
        "iversity"
      ],
      [
        "h",
        "or"
      ],
      [
        "or",
        "th"
      ],
      [
        "'",
        "ve"
      ],
      [
        "Ġ1",
        "1"
      ],
      [
        "Ġ",
        ","
      ],
      [
        "Ġm",
        "en"
      ],
      [
        "m",
        "it"
      ],
      [
        "ate",
        "ly"
      ],
      [
        "Ġcom",
        "b"
      ],
      [
        "Ġsu",
        "re"
      ],
      [
        "Ġhe",
        "art"
      ],
      [
        "Ġch",
        "all"
      ],
      [
        "Ġan",
        "t"
      ],
      [
        "Ġper",
        "iod"
      ],
      [
        "Ġa",
        "ir"
      ],
      [
        "th",
        "ough"
      ],
      [
        "is",
        "ed"
      ],
      [
        "ĠS",
        "he"
      ],
      [
        "Ġadd",
        "ition"
      ],
      [
        "Ġsignific",
        "ant"
      ],
      [
        "s",
        "y"
      ],
      [
        "Ġsu",
        "ccess"
      ],
      [
        "Ġke",
        "y"
      ],
      [
        "Ġd",
        "ue"
      ],
      [
        "E",
        "R"
      ],
      [
        "Ġh",
        "ig"
      ],
      [
        "Ġdevelop",
        "ment"
      ],
      [
        "ĠC",
        "ol"
      ],
      [
        "re",
        "ct"
      ],
      [
        "Ġprov",
        "ide"
      ],
      [
        "Ġocc",
        "ur"
      ],
      [
        "2",
        "5"
      ],
      [
        "Ġ1",
        "00"
      ],
      [
        "ĠQ",
        "u"
      ],
      [
        "in",
        "a"
      ],
      [
        "Ġp",
        "ain"
      ],
      [
        "Ġp",
        "ast"
      ],
      [
        "ort",
        "un"
      ],
      [
        "ab",
        "or"
      ],
      [
        ")",
        ")"
      ],
      [
        "Ġinv",
        "est"
      ],
      [
        "f",
        "ace"
      ],
      [
        "ut",
        "ure"
      ],
      [
        "Ġen",
        "c"
      ],
      [
        "ver",
        "t"
      ],
      [
        "Ġg",
        "r"
      ],
      [
        "w",
        "ork"
      ],
      [
        "Ġs",
        "w"
      ],
      [
        "ir",
        "d"
      ],
      [
        "Ġspec",
        "ial"
      ],
      [
        "Ġspec",
        "ific"
      ],
      [
        "Ġstr",
        "uct"
      ],
      [
        "Ġle",
        "ast"
      ],
      [
        "Ġc",
        "rit"
      ],
      [
        "com",
        "m"
      ],
      [
        "Ġsu",
        "gg"
      ],
      [
        "end",
        "ed"
      ],
      [
        "Ġsugg",
        "est"
      ],
      [
        "Ġt",
        "re"
      ],
      [
        "Ġcomple",
        "x"
      ],
      [
        "Ġloc",
        "al"
      ],
      [
        "Ġha",
        "ving"
      ],
      [
        "ĠI",
        "m"
      ],
      [
        "le",
        "ft"
      ],
      [
        "Ġr",
        "ange"
      ],
      [
        "us",
        "h"
      ],
      [
        "'",
        "ll"
      ],
      [
        "et",
        "ic"
      ],
      [
        "Ġ$",
        "\\"
      ],
      [
        "Ġt",
        "ell"
      ],
      [
        "Ġo",
        "pt"
      ],
      [
        "ar",
        "c"
      ],
      [
        "Ġ",
        "ess"
      ],
      [
        "Ġe",
        "ither"
      ],
      [
        "Ġre",
        "ce"
      ],
      [
        "Ġex",
        "ist"
      ],
      [
        "ive",
        "ly"
      ],
      [
        ")",
        ":"
      ],
      [
        "Ġyou",
        "ng"
      ],
      [
        "le",
        "ase"
      ],
      [
        "ict",
        "ion"
      ],
      [
        "The",
        "re"
      ],
      [
        "Ġp",
        "a"
      ],
      [
        "Ġn",
        "orm"
      ],
      [
        "l",
        "ished"
      ],
      [
        "Ġd",
        "iv"
      ],
      [
        "Ġan",
        "g"
      ],
      [
        "3",
        "0"
      ],
      [
        "Ġsh",
        "ort"
      ],
      [
        "e",
        "e"
      ],
      [
        "Ġcle",
        "ar"
      ],
      [
        "f",
        "unction"
      ],
      [
        "l",
        "er"
      ],
      [
        "Ġf",
        "ocus"
      ],
      [
        "Ġrel",
        "ations"
      ],
      [
        "Ġequ",
        "al"
      ],
      [
        "m",
        "a"
      ],
      [
        "âĢ",
        "ĵ"
      ],
      [
        "Ġe",
        "y"
      ],
      [
        "F",
        "or"
      ],
      [
        "Y",
        "ou"
      ],
      [
        "Ġm",
        "ajor"
      ],
      [
        "Ġac",
        "ross"
      ],
      [
        "Ġris",
        "k"
      ],
      [
        "Ġapp",
        "ear"
      ],
      [
        "Ġacc",
        "ess"
      ],
      [
        "ĠA",
        "ll"
      ],
      [
        "Ġd",
        "ig"
      ],
      [
        "h",
        "y"
      ],
      [
        "ĊĊ",
        "ĠĠĠ"
      ],
      [
        "pe",
        "cial"
      ],
      [
        "Ġre",
        "ason"
      ],
      [
        "Ġl",
        "ater"
      ],
      [
        "ĠO",
        "n"
      ],
      [
        "Ġass",
        "oci"
      ],
      [
        "Ġte",
        "am"
      ],
      [
        "Ġw",
        "ays"
      ],
      [
        "Ġapp",
        "lic"
      ],
      [
        "Ġl",
        "og"
      ],
      [
        "Ġob",
        "s"
      ],
      [
        "Ġe",
        "ver"
      ],
      [
        "u",
        "se"
      ],
      [
        "Ġm",
        "akes"
      ],
      [
        "Ġg",
        "ot"
      ],
      [
        "Ġto",
        "ward"
      ],
      [
        "Ġf",
        "ac"
      ],
      [
        "Ġtr",
        "ue"
      ],
      [
        "Ġavail",
        "able"
      ],
      [
        "Ġwor",
        "king"
      ],
      [
        "r",
        "or"
      ],
      [
        "Ġb",
        "ook"
      ],
      [
        "Ġne",
        "cess"
      ],
      [
        "Ġchar",
        "acter"
      ],
      [
        "Ġcount",
        "ry"
      ],
      [
        "Ġm",
        "oney"
      ],
      [
        "Ġto",
        "day"
      ],
      [
        "ĠUn",
        "ited"
      ],
      [
        "at",
        "ors"
      ],
      [
        "it",
        "ing"
      ],
      [
        "al",
        "f"
      ],
      [
        "ig",
        "ure"
      ],
      [
        "Ġl",
        "ot"
      ],
      [
        "}",
        "}"
      ],
      [
        "Ġwhe",
        "ther"
      ],
      [
        "Ġcon",
        "cept"
      ],
      [
        "ĠM",
        "ay"
      ],
      [
        "Ġar",
        "g"
      ],
      [
        "Ġcon",
        "d"
      ],
      [
        "Ġsc",
        "ient"
      ],
      [
        "Ġthough",
        "t"
      ],
      [
        "ut",
        "es"
      ],
      [
        "Ġwho",
        "le"
      ],
      [
        "Ġp",
        "ay"
      ],
      [
        "ar",
        "ing"
      ],
      [
        "n",
        "s"
      ],
      [
        "Ã",
        "Ĥ"
      ],
      [
        "Ġc",
        "ause"
      ],
      [
        "s",
        "ide"
      ],
      [
        "ak",
        "en"
      ],
      [
        "il",
        "ities"
      ],
      [
        "ĠC",
        "al"
      ],
      [
        "as",
        "ing"
      ],
      [
        "Ġcomple",
        "te"
      ],
      [
        "Ċ",
        "ĠĠĠ"
      ],
      [
        "ore",
        "d"
      ],
      [
        "Ġpol",
        "it"
      ],
      [
        "Ġmod",
        "el"
      ],
      [
        "ic",
        "ult"
      ],
      [
        "Ġresult",
        "s"
      ],
      [
        "2",
        "00"
      ],
      [
        "Ġdoes",
        "n"
      ],
      [
        "ol",
        "s"
      ],
      [
        "Ġact",
        "ually"
      ],
      [
        "Ġsim",
        "ple"
      ],
      [
        "in",
        "king"
      ],
      [
        "os",
        "p"
      ],
      [
        "Ġsystem",
        "s"
      ],
      [
        "ĠO",
        "ne"
      ],
      [
        "ĠT",
        "e"
      ],
      [
        "H",
        "ow"
      ],
      [
        "g",
        "es"
      ],
      [
        "Ġa",
        "ge"
      ],
      [
        "y",
        "n"
      ],
      [
        "E",
        "x"
      ],
      [
        "Ġd",
        "one"
      ],
      [
        "Ġstr",
        "ong"
      ],
      [
        "\\",
        "\\"
      ],
      [
        "Ġunderstand",
        "ing"
      ],
      [
        "Ġf",
        "r"
      ],
      [
        "ver",
        "age"
      ],
      [
        "ang",
        "le"
      ],
      [
        "ain",
        "ed"
      ],
      [
        "Ġin",
        "it"
      ],
      [
        "Ġpoint",
        "s"
      ],
      [
        "|",
        "|"
      ],
      [
        "t",
        "a"
      ],
      [
        "Ġwor",
        "ds"
      ],
      [
        "Ġt",
        "erm"
      ],
      [
        "sel",
        "ves"
      ],
      [
        "Ġare",
        "as"
      ],
      [
        "ap",
        "ter"
      ],
      [
        "et",
        "er"
      ],
      [
        "ĠM",
        "ar"
      ],
      [
        "ist",
        "ic"
      ],
      [
        "Ġn",
        "atural"
      ],
      [
        "ĠĠĠĠ",
        "ĠĠ"
      ],
      [
        "n",
        "ew"
      ],
      [
        "er",
        "c"
      ],
      [
        "Ġto",
        "tal"
      ],
      [
        "un",
        "e"
      ],
      [
        "Ġin",
        "tern"
      ],
      [
        "led",
        "ge"
      ],
      [
        "Ġf",
        "uture"
      ],
      [
        "an",
        "n"
      ],
      [
        "Ġsing",
        "le"
      ],
      [
        "Ġhapp",
        "en"
      ],
      [
        "Ġb",
        "i"
      ],
      [
        "en",
        "cy"
      ],
      [
        "te",
        "xt"
      ],
      [
        "y",
        "m"
      ],
      [
        "ere",
        "nce"
      ]
    ]
  }
}